{
  "version": "1.0",
  "truncation": null,
  "padding": null,
  "added_tokens": [
    {
      "id": 0,
      "content": "<|endoftext|>",
      "single_word": false,
      "lstrip": false,
      "rstrip": false,
      "normalized": false,
      "special": true
    },
    {
      "id": 1,
      "content": "<|im_start|>",
      "single_word": false,
      "lstrip": false,
      "rstrip": false,
      "normalized": false,
      "special": true
    },
    {
      "id": 2,
      "content": "<|im_end|>",
      "single_word": false,
      "lstrip": false,
      "rstrip": false,
      "normalized": false,
      "special": true
    },
    {
      "id": 3,
      "content": "<fake_token_around_image>",
      "single_word": false,
      "lstrip": false,
      "rstrip": false,
      "normalized": false,
      "special": true
    },
    {
      "id": 4,
      "content": "<global-img>",
      "single_word": false,
      "lstrip": false,
      "rstrip": false,
      "normalized": false,
      "special": true
    },
    {
      "id": 5,
      "content": "<image>",
      "single_word": false,
      "lstrip": false,
      "rstrip": false,
      "normalized": false,
      "special": true
    },
    {
      "id": 6,
      "content": "<row_1_col_1>",
      "single_word": false,
      "lstrip": false,
      "rstrip": false,
      "normalized": false,
      "special": true
    },
    {
      "id": 7,
      "content": "<row_1_col_2>",
      "single_word": false,
      "lstrip": false,
      "rstrip": false,
      "normalized": false,
      "special": true
    },
    {
      "id": 8,
      "content": "<row_1_col_3>",
      "single_word": false,
      "lstrip": false,
      "rstrip": false,
      "normalized": false,
      "special": true
    },
    {
      "id": 9,
      "content": "<row_1_col_4>",
      "single_word": false,
      "lstrip": false,
      "rstrip": false,
      "normalized": false,
      "special": true
    },
    {
      "id": 10,
      "content": "<row_2_col_1>",
      "single_word": false,
      "lstrip": false,
      "rstrip": false,
      "normalized": false,
      "special": true
    },
    {
      "id": 11,
      "content": "<row_2_col_2>",
      "single_word": false,
      "lstrip": false,
      "rstrip": false,
      "normalized": false,
      "special": true
    },
    {
      "id": 12,
      "content": "<row_2_col_3>",
      "single_word": false,
      "lstrip": false,
      "rstrip": false,
      "normalized": false,
      "special": true
    },
    {
      "id": 13,
      "content": "<row_2_col_4>",
      "single_word": false,
      "lstrip": false,
      "rstrip": false,
      "normalized": false,
      "special": true
    },
    {
      "id": 14,
      "content": "<row_3_col_1>",
      "single_word": false,
      "lstrip": false,
      "rstrip": false,
      "normalized": false,
      "special": true
    },
    {
      "id": 15,
      "content": "<row_3_col_2>",
      "single_word": false,
      "lstrip": false,
      "rstrip": false,
      "normalized": false,
      "special": true
    },
    {
      "id": 16,
      "content": "<row_3_col_3>",
      "single_word": false,
      "lstrip": false,
      "rstrip": false,
      "normalized": false,
      "special": true
    },
    {
      "id": 17,
      "content": "<row_3_col_4>",
      "single_word": false,
      "lstrip": false,
      "rstrip": false,
      "normalized": false,
      "special": true
    },
    {
      "id": 18,
      "content": "<row_4_col_1>",
      "single_word": false,
      "lstrip": false,
      "rstrip": false,
      "normalized": false,
      "special": true
    },
    {
      "id": 19,
      "content": "<row_4_col_2>",
      "single_word": false,
      "lstrip": false,
      "rstrip": false,
      "normalized": false,
      "special": true
    },
    {
      "id": 20,
      "content": "<row_4_col_3>",
      "single_word": false,
      "lstrip": false,
      "rstrip": false,
      "normalized": false,
      "special": true
    },
    {
      "id": 21,
      "content": "<row_4_col_4>",
      "single_word": false,
      "lstrip": false,
      "rstrip": false,
      "normalized": false,
      "special": true
    }
  ],
  "normalizer": null,
  "pre_tokenizer": {
    "type": "ByteLevel",
    "add_prefix_space": false,
    "trim_offsets": true,
    "use_regex": true
  },
  "post_processor": null,
  "decoder": {
    "type": "ByteLevel",
    "add_prefix_space": true,
    "trim_offsets": true,
    "use_regex": true
  },
  "model": {
    "type": "BPE",
    "dropout": null,
    "unk_token": null,
    "continuing_subword_prefix": null,
    "end_of_word_suffix": null,
    "fuse_unk": false,
    "byte_fallback": false,
    "ignore_merges": false,
    "vocab": {
      "<|endoftext|>": 0,
      "<|im_start|>": 1,
      "<|im_end|>": 2,
      "<fake_token_around_image>": 3,
      "<global-img>": 4,
      "<image>": 5,
      "<row_1_col_1>": 6,
      "<row_1_col_2>": 7,
      "<row_1_col_3>": 8,
      "<row_1_col_4>": 9,
      "<row_2_col_1>": 10,
      "<row_2_col_2>": 11,
      "<row_2_col_3>": 12,
      "<row_2_col_4>": 13,
      "<row_3_col_1>": 14,
      "<row_3_col_2>": 15,
      "<row_3_col_3>": 16,
      "<row_3_col_4>": 17,
      "<row_4_col_1>": 18,
      "<row_4_col_2>": 19,
      "<row_4_col_3>": 20,
      "<row_4_col_4>": 21,
      "!": 22,
      "\"": 23,
      "#": 24,
      "$": 25,
      "%": 26,
      "&": 27,
      "'": 28,
      "(": 29,
      ")": 30,
      "*": 31,
      "+": 32,
      ",": 33,
      "-": 34,
      ".": 35,
      "/": 36,
      "0": 37,
      "1": 38,
      "2": 39,
      "3": 40,
      "4": 41,
      "5": 42,
      "6": 43,
      "7": 44,
      "8": 45,
      "9": 46,
      ":": 47,
      ";": 48,
      "<": 49,
      "=": 50,
      ">": 51,
      "?": 52,
      "@": 53,
      "A": 54,
      "B": 55,
      "C": 56,
      "D": 57,
      "E": 58,
      "F": 59,
      "G": 60,
      "H": 61,
      "I": 62,
      "J": 63,
      "K": 64,
      "L": 65,
      "M": 66,
      "N": 67,
      "O": 68,
      "P": 69,
      "Q": 70,
      "R": 71,
      "S": 72,
      "T": 73,
      "U": 74,
      "V": 75,
      "W": 76,
      "X": 77,
      "Y": 78,
      "Z": 79,
      "[": 80,
      "\\": 81,
      "]": 82,
      "^": 83,
      "_": 84,
      "`": 85,
      "a": 86,
      "b": 87,
      "c": 88,
      "d": 89,
      "e": 90,
      "f": 91,
      "g": 92,
      "h": 93,
      "i": 94,
      "j": 95,
      "k": 96,
      "l": 97,
      "m": 98,
      "n": 99,
      "o": 100,
      "p": 101,
      "q": 102,
      "r": 103,
      "s": 104,
      "t": 105,
      "u": 106,
      "v": 107,
      "w": 108,
      "x": 109,
      "y": 110,
      "z": 111,
      "{": 112,
      "|": 113,
      "}": 114,
      "~": 115,
      "¡": 116,
      "¢": 117,
      "£": 118,
      "¤": 119,
      "¥": 120,
      "¦": 121,
      "§": 122,
      "¨": 123,
      "©": 124,
      "ª": 125,
      "«": 126,
      "¬": 127,
      "®": 128,
      "¯": 129,
      "°": 130,
      "±": 131,
      "²": 132,
      "³": 133,
      "´": 134,
      "µ": 135,
      "¶": 136,
      "·": 137,
      "¸": 138,
      "¹": 139,
      "º": 140,
      "»": 141,
      "¼": 142,
      "½": 143,
      "¾": 144,
      "¿": 145,
      "À": 146,
      "Á": 147,
      "Â": 148,
      "Ã": 149,
      "Ä": 150,
      "Å": 151,
      "Æ": 152,
      "Ç": 153,
      "È": 154,
      "É": 155,
      "Ê": 156,
      "Ë": 157,
      "Ì": 158,
      "Í": 159,
      "Î": 160,
      "Ï": 161,
      "Ð": 162,
      "Ñ": 163,
      "Ò": 164,
      "Ó": 165,
      "Ô": 166,
      "Õ": 167,
      "Ö": 168,
      "×": 169,
      "Ø": 170,
      "Ù": 171,
      "Ú": 172,
      "Û": 173,
      "Ü": 174,
      "Ý": 175,
      "Þ": 176,
      "ß": 177,
      "à": 178,
      "á": 179,
      "â": 180,
      "ã": 181,
      "ä": 182,
      "å": 183,
      "æ": 184,
      "ç": 185,
      "è": 186,
      "é": 187,
      "ê": 188,
      "ë": 189,
      "ì": 190,
      "í": 191,
      "î": 192,
      "ï": 193,
      "ð": 194,
      "ñ": 195,
      "ò": 196,
      "ó": 197,
      "ô": 198,
      "õ": 199,
      "ö": 200,
      "÷": 201,
      "ø": 202,
      "ù": 203,
      "ú": 204,
      "û": 205,
      "ü": 206,
      "ý": 207,
      "þ": 208,
      "ÿ": 209,
      "Ā": 210,
      "ā": 211,
      "Ă": 212,
      "ă": 213,
      "Ą": 214,
      "ą": 215,
      "Ć": 216,
      "ć": 217,
      "Ĉ": 218,
      "ĉ": 219,
      "Ċ": 220,
      "ċ": 221,
      "Č": 222,
      "č": 223,
      "Ď": 224,
      "ď": 225,
      "Đ": 226,
      "đ": 227,
      "Ē": 228,
      "ē": 229,
      "Ĕ": 230,
      "ĕ": 231,
      "Ė": 232,
      "ė": 233,
      "Ę": 234,
      "ę": 235,
      "Ě": 236,
      "ě": 237,
      "Ĝ": 238,
      "ĝ": 239,
      "Ğ": 240,
      "ğ": 241,
      "Ġ": 242,
      "ġ": 243,
      "Ģ": 244,
      "ģ": 245,
      "Ĥ": 246,
      "ĥ": 247,
      "Ħ": 248,
      "ħ": 249,
      "Ĩ": 250,
      "ĩ": 251,
      "Ī": 252,
      "ī": 253,
      "Ĭ": 254,
      "ĭ": 255,
      "Į": 256,
      "į": 257,
      "İ": 258,
      "ı": 259,
      "Ĳ": 260,
      "ĳ": 261,
      "Ĵ": 262,
      "ĵ": 263,
      "Ķ": 264,
      "ķ": 265,
      "ĸ": 266,
      "Ĺ": 267,
      "ĺ": 268,
      "Ļ": 269,
      "ļ": 270,
      "Ľ": 271,
      "ľ": 272,
      "Ŀ": 273,
      "ŀ": 274,
      "Ł": 275,
      "ł": 276,
      "Ń": 277,
      "ä¸": 278,
      "ï¼": 279,
      "çļ": 280,
      "çļĦ": 281,
      "ï¼Į": 282,
      "ãĢ": 283,
      "ãĢĤ": 284,
      "äº": 285,
      "ä»": 286,
      "åı": 287,
      "æľ": 288,
      "è¿": 289,
      "æĪ": 290,
      "åħ": 291,
      "ä½": 292,
      "æĺ": 293,
      "å¤": 294,
      "im": 295,
      "|>": 296,
      "<|": 297,
      "è¯": 298,
      "ä¸Ģ": 299,
      "æĸ": 300,
      "å®": 301,
      "çĶ": 302,
      "åĪ": 303,
      "åĴ": 304,
      "åľ": 305,
      "åĴĮ": 306,
      "åĲ": 307,
      "åĬ": 308,
      "ç»": 309,
      "ä¹": 310,
      "æĺ¯": 311,
      "å°": 312,
      "åŃ": 313,
      "ä¸ª": 314,
      "ä»¥": 315,
      "è®": 316,
      "ãĢģ": 317,
      "æĪĳ": 318,
      "åľ¨": 319,
      "äºº": 320,
      "ĥ½": 321,
      "ar": 322,
      "en": 323,
      "st": 324,
      "art": 325,
      "end": 326,
      "start": 327,
      "æľī": 328,
      "ï¼ļ": 329,
      "æĹ": 330,
      "äºĨ": 331,
      "åı¯": 332,
      "è¿Ļ": 333,
      "åĽ": 334,
      "æĿ": 335,
      "åº": 336,
      "éĩ": 337,
      "å¹": 338,
      "å¸": 339,
      "ä¸Ń": 340,
      "ä¼": 341,
      "éĢ": 342,
      "è¡": 343,
      "èĥ½": 344,
      "çļĦæ": 345,
      "åĩ": 346,
      "ãĢĤ<|": 347,
      "å·": 348,
      "æĸĩ": 349,
      "åĮ": 350,
      "è¦": 351,
      "è¦ģ": 352,
      "é¢": 353,
      "å¯": 354,
      "å¾": 355,
      "åĨ": 356,
      "ä¸º": 357,
      "è§": 358,
      "å¥": 359,
      "çī": 360,
      "ç§": 361,
      "ä»¬": 362,
      "éĹ": 363,
      "çİ": 364,
      "å¼": 365,
      "ä¸į": 366,
      "çĶ¨": 367,
      "æķ": 368,
      "èĢ": 369,
      "å½": 370,
      "æĢ": 371,
      "æŀ": 372,
      "çĶŁ": 373,
      "çŃ": 374,
      "æı": 375,
      "æī": 376,
      "æŃ": 377,
      "åı¯ä»¥": 378,
      "éĿ": 379,
      "åį": 380,
      "Ġ<|": 381,
      "ä¿": 382,
      "æĬ": 383,
      "æł": 384,
      "æ³": 385,
      "çĽ": 386,
      "âĢ": 387,
      "æĿ¥": 388,
      "èĩ": 389,
      "æĦ": 390,
      "åĵ": 391,
      "å¦": 392,
      "ä¸ĭ": 393,
      "çĲ": 394,
      "ä¸Ģä¸ª": 395,
      "æĪĲ": 396,
      "åİ": 397,
      "æĥ": 398,
      "æıĲ": 399,
      "æ°": 400,
      "åĪ°": 401,
      "ä»ĸ": 402,
      "æĽ": 403,
      "åŃ¦": 404,
      "æĻ": 405,
      "å¦Ĥ": 406,
      "è¡Į": 407,
      "åĩº": 408,
      "åĳ": 409,
      "å¿": 410,
      "æĹ¶": 411,
      "å¯¹": 412,
      "æĭ": 413,
      "ä½ł": 414,
      "åŃĲ": 415,
      "ä¾": 416,
      "äºİ": 417,
      "æİ": 418,
      "åľ°": 419,
      "é¢ĺ": 420,
      "ä¸Ĭ": 421,
      "ç«": 422,
      "æĶ": 423,
      "è´": 424,
      "å°ı": 425,
      "å¥½": 426,
      "ä¼ļ": 427,
      "çŃī": 428,
      "æĸ¹": 429,
      "æľ¬": 430,
      "èĩª": 431,
      "åĪĨ": 432,
      "æĽ´": 433,
      "äºĽ": 434,
      "å¤ļ": 435,
      "æµ": 436,
      "æ¯": 437,
      "èµ": 438,
      "å¤§": 439,
      "å±": 440,
      "æį": 441,
      "ï¼Ł": 442,
      "åĬ¨": 443,
      "ä½ľ": 444,
      "å·¥": 445,
      "çī©": 446,
      "çº": 447,
      "åħ³": 448,
      "è¾": 449,
      "å¹¶": 450,
      "åıĳ": 451,
      "ç®": 452,
      "æĮ": 453,
      "ç±": 454,
      "é£": 455,
      "éľ": 456,
      "æĪĳä»¬": 457,
      "éĿ¢": 458,
      "æ´": 459,
      "å®ļ": 460,
      "æľĢ": 461,
      "åħ¶": 462,
      "æŀľ": 463,
      "åŁ": 464,
      "æ¬": 465,
      "ç§į": 466,
      "çİ°": 467,
      "çļĦç": 468,
      "è¿Ľ": 469,
      "æ³ķ": 470,
      "éĻ": 471,
      "è¿ĩ": 472,
      "æĤ": 473,
      "éĹ®": 474,
      "åģ": 475,
      "æ¸": 476,
      "ä½ĵ": 477,
      "èī": 478,
      "å¤©": 479,
      "å®ĥ": 480,
      "æį®": 481,
      "ç»Ļ": 482,
      "åĬĽ": 483,
      "çĲĨ": 484,
      "æĺİ": 485,
      "éľĢ": 486,
      "æ²": 487,
      "å°Ĩ": 488,
      "åºĶ": 489,
      "åĬł": 490,
      "ç±»": 491,
      "æĸ°": 492,
      "éģ": 493,
      "çĤ": 494,
      "åĮĸ": 495,
      "æĢ§": 496,
      "çĦ": 497,
      "é«": 498,
      "åĲĮ": 499,
      "æĪĸ": 500,
      "ä½¿": 501,
      "åĽł": 502,
      "ä¿Ŀ": 503,
      "å¸¸": 504,
      "éĩį": 505,
      "çľ": 506,
      "é«ĺ": 507,
      "åı¥": 508,
      "è½": 509,
      "æĦŁ": 510,
      "å®¶": 511,
      "ä¹Ł": 512,
      "æľº": 513,
      "å½±": 514,
      "è¶": 515,
      "æ±": 516,
      "ä¸»": 517,
      "éĶ": 518,
      "éĺ": 519,
      "è¯Ń": 520,
      "çĦ¶": 521,
      "ç«ł": 522,
      "å¾Ĺ": 523,
      "âĢĿ": 524,
      "æķ°": 525,
      "æĸĩç«ł": 526,
      "éĢļ": 527,
      "åĵģ": 528,
      "âĢľ": 529,
      "ç³": 530,
      "éľĢè¦ģ": 531,
      "çĶµ": 532,
      "æĬĢ": 533,
      "æĻº": 534,
      "è°": 535,
      "è§£": 536,
      "æĸĩæľ¬": 537,
      "ä¹ĭ": 538,
      "ä¹Ī": 539,
      "æĥħ": 540,
      "æĤ¨": 541,
      "éĹ®é¢ĺ": 542,
      "åº¦": 543,
      "çŁ": 544,
      "èĢĮ": 545,
      "åī": 546,
      "æģ": 547,
      "è¡¨": 548,
      "ç»ı": 549,
      "æĻºèĥ½": 550,
      "è¯·": 551,
      "çĿ": 552,
      "å¾Ī": 553,
      "éĹ´": 554,
      "æŃ¤": 555,
      "èĬ": 556,
      "åĸ": 557,
      "ç¾": 558,
      "åħ¬": 559,
      "å¢": 560,
      "éĩı": 561,
      "åĽ½": 562,
      "ç©": 563,
      "çĤ¹": 564,
      "æľ¯": 565,
      "ç¤": 566,
      "èī²": 567,
      "èĤ": 568,
      "èĢħ": 569,
      "è¯į": 570,
      "å¹´": 571,
      "å®ŀ": 572,
      "æ°Ķ": 573,
      "å»": 574,
      "åĢ": 575,
      "åıĸ": 576,
      "ä¿¡": 577,
      "è¿Ļä¸ª": 578,
      "ä¹ł": 579,
      "åĲį": 580,
      "ç¨": 581,
      "å¿ĥ": 582,
      "ä½Ĩ": 583,
      "åĲĪ": 584,
      "æĦı": 585,
      "è¯¥": 586,
      "ä¸ļ": 587,
      "ä¾Ľ": 588,
      "çĸ": 589,
      "è®¡": 590,
      "åĲİ": 591,
      "ç¡": 592,
      "éĤ": 593,
      "äºĭ": 594,
      "æīĢ": 595,
      "ä»¥ä¸ĭ": 596,
      "ä»İ": 597,
      "è¿ĺ": 598,
      "å»º": 599,
      "æ®": 600,
      "çĽ¸": 601,
      "çĿĢ": 602,
      "çĲĥ": 603,
      "ä¸ĢäºĽ": 604,
      "éĥ½": 605,
      "åĮħ": 606,
      "æıĲä¾Ľ": 607,
      "æ´»": 608,
      "ä¸İ": 609,
      "ç¾İ": 610,
      "æł¹": 611,
      "è¿Ľè¡Į": 612,
      "æŁ": 613,
      "åı¥åŃĲ": 614,
      "ç½": 615,
      "å¼ı": 616,
      "é£Ł": 617,
      "åħ¥": 618,
      "å±ķ": 619,
      "åħ¨": 620,
      "éĩĮ": 621,
      "è¿°": 622,
      "äººå·¥": 623,
      "å¤ĸ": 624,
      "çİ¯": 625,
      "é¡": 626,
      "çķ": 627,
      "çī¹": 628,
      "ä½¿çĶ¨": 629,
      "æĥ³": 630,
      "ç´": 631,
      "éĿŀ": 632,
      "èĲ": 633,
      "é¦": 634,
      "äººå·¥æĻºèĥ½": 635,
      "ç¯": 636,
      "åĨħ": 637,
      "æŃ£": 638,
      "æ¡": 639,
      "è¢": 640,
      "éļ": 641,
      "å½ĵ": 642,
      "å¼Ģ": 643,
      "åİ»": 644,
      "éķ": 645,
      "æģ¯": 646,
      "æł¹æį®": 647,
      "æ°´": 648,
      "æ·": 649,
      "æ¯Ķ": 650,
      "åıĺ": 651,
      "åĨĻ": 652,
      "æ®µ": 653,
      "æĺ¯ä¸Ģ": 654,
      "åŀ": 655,
      "éĥ": 656,
      "ç³»": 657,
      "è·": 658,
      "åĬ©": 659,
      "èģ": 660,
      "è¯´": 661,
      "åŃ¦ä¹ł": 662,
      "ç¨ĭ": 663,
      "åĪ¶": 664,
      "åħ·": 665,
      "ç¡®": 666,
      "å¸Ĥ": 667,
      "è®©": 668,
      "ä»Ģ": 669,
      "éĽ": 670,
      "æĮģ": 671,
      "éģĵ": 672,
      "åĿ": 673,
      "çľĭ": 674,
      "ç¯ĩ": 675,
      "ç¼": 676,
      "äº§": 677,
      "èµ·": 678,
      "çĥ": 679,
      "ç»ĵ": 680,
      "åķ": 681,
      "ä»Ģä¹Ī": 682,
      "æĬĢæľ¯": 683,
      "å¸®": 684,
      "èº": 685,
      "åıĬ": 686,
      "è¯Ŀ": 687,
      "éĥ¨": 688,
      "çĽ®": 689,
      "éĤ£": 690,
      "èĭ": 691,
      "ç¬": 692,
      "ä½ķ": 693,
      "éķ¿": 694,
      "éĿŀå¸¸": 695,
      "èį": 696,
      "åĬ¡": 697,
      "ç®Ĺ": 698,
      "æ¯ı": 699,
      "èº«": 700,
      "çĭ": 701,
      "è¢«": 702,
      "åģ¥": 703,
      "ç§ĳ": 704,
      "æĹ¥": 705,
      "å°ĳ": 706,
      "å·±": 707,
      "åīį": 708,
      "åĻ": 709,
      "æĭ¬": 710,
      "éħ": 711,
      "éĢĤ": 712,
      "åĸľ": 713,
      "èĩªå·±": 714,
      "åľº": 715,
      "å®¹": 716,
      "åıĹ": 717,
      "åı¯èĥ½": 718,
      "æĹł": 719,
      "åĽŀ": 720,
      "æ¬¢": 721,
      "ä¿¡æģ¯": 722,
      "éĢī": 723,
      "ä»ĸä»¬": 724,
      "åĻ¨": 725,
      "åĮ»": 726,
      "äº¤": 727,
      "å¥½çļĦ": 728,
      "ä»£": 729,
      "åŀĭ": 730,
      "é¢Ĩ": 731,
      "åĪ«": 732,
      "èĻ": 733,
      "çł": 734,
      "å¤Ħ": 735,
      "çĶµå½±": 736,
      "çŃĶ": 737,
      "è¨": 738,
      "é¥": 739,
      "çĪ": 740,
      "éª": 741,
      "æ¶": 742,
      "ä½į": 743,
      "åĪ©": 744,
      "è´¨": 745,
      "æ»": 746,
      "è®®": 747,
      "é£İ": 748,
      "å¢ĥ": 749,
      "å¹³": 750,
      "ä¸¤": 751,
      "æ¡Ī": 752,
      "æīĭ": 753,
      "çĹ": 754,
      "å§": 755,
      "ä¾ĭ": 756,
      "è¿ĻäºĽ": 757,
      "éĩįè¦ģ": 758,
      "éĢļè¿ĩ": 759,
      "å¦Ĥæŀľ": 760,
      "ä¸ŃçļĦ": 761,
      "éŁ": 762,
      "ä»»": 763,
      "åĵį": 764,
      "ä»¶": 765,
      "çĶŁæĪĲ": 766,
      "åĮħæĭ¬": 767,
      "è®º": 768,
      "åŃĹ": 769,
      "åı¸": 770,
      "åŁŁ": 771,
      "åıĳå±ķ": 772,
      "è¨Ģ": 773,
      "çĻ": 774,
      "åºĶçĶ¨": 775,
      "å°ıæĺİ": 776,
      "å°±": 777,
      "æłĩ": 778,
      "ç®Ģ": 779,
      "æ±Ĥ": 780,
      "æ²¡": 781,
      "åĪĽ": 782,
      "åįķ": 783,
      "åĨ³": 784,
      "è§Ĥ": 785,
      "æĶ¹": 786,
      "æĶ¾": 787,
      "æİ¨": 788,
      "æ¸¸": 789,
      "èĪ": 790,
      "çģ": 791,
      "åıª": 792,
      "æľª": 793,
      "è®¾": 794,
      "å½±åĵį": 795,
      "çŁ¥": 796,
      "åº·": 797,
      "ç»Ł": 798,
      "æĹ¶éĹ´": 799,
      "ä¸ī": 800,
      "æĢ»": 801,
      "å¸®åĬ©": 802,
      "ç¥": 803,
      "æľŁ": 804,
      "é»": 805,
      "å£": 806,
      "åĸľæ¬¢": 807,
      "æº": 808,
      "ä¹Ĳ": 809,
      "èĬĤ": 810,
      "åħ¬åı¸": 811,
      "æıı": 812,
      "æķĪ": 813,
      "è¯Ĩ": 814,
      "åģ¥åº·": 815,
      "æµ·": 816,
      "æ¨": 817,
      "å¼º": 818,
      "å¤Ł": 819,
      "èĥ": 820,
      "ç»Ļå®ļ": 821,
      "ç¤¾": 822,
      "æĸŃ": 823,
      "åĩı": 824,
      "äººç±»": 825,
      "æĳ": 826,
      "æ³¨": 827,
      "æŀģ": 828,
      "å®ī": 829,
      "é¢ĨåŁŁ": 830,
      "çĶŁæ´»": 831,
      "æ¼": 832,
      "æľį": 833,
      "è¾¾": 834,
      "æ·±": 835,
      "çĶ±": 836,
      "æł·": 837,
      "çĸĹ": 838,
      "åĽłæŃ¤": 839,
      "çİ¯å¢ĥ": 840,
      "ä¸įåĲĮ": 841,
      "æŃ¥": 842,
      "å·¥ä½ľ": 843,
      "æĺŁ": 844,
      "è±": 845,
      "èĦ": 846,
      "é©": 847,
      "éŁ³": 848,
      "å¤ª": 849,
      "æķ°æį®": 850,
      "æµģ": 851,
      "å½¢": 852,
      "åİŁ": 853,
      "åģļ": 854,
      "ä¸ĸ": 855,
      "å·²": 856,
      "èİ": 857,
      "æıĲåıĸ": 858,
      "æĻ¯": 859,
      "è½¦": 860,
      "åıĭ": 861,
      "æııè¿°": 862,
      "æ²¡æľī": 863,
      "å¸¦": 864,
      "æĪ·": 865,
      "åĽłä¸º": 866,
      "å¯¼": 867,
      "è¿Ĳ": 868,
      "æ¬¡": 869,
      "åĳĺ": 870,
      "çĮ": 871,
      "ç²": 872,
      "éĴ": 873,
      "èı": 874,
      "å»ºè®®": 875,
      "æ¨¡": 876,
      "æĸĻ": 877,
      "éĶ®": 878,
      "æıĲé«ĺ": 879,
      "è¯ķ": 880,
      "èĩªçĦ¶": 881,
      "å®ĥä»¬": 882,
      "æī¾": 883,
      "ãĢĭ": 884,
      "åŁº": 885,
      "ãĢĬ": 886,
      "å¦Ĥä½ķ": 887,
      "è®¤": 888,
      "åİĨ": 889,
      "ä¹ī": 890,
      "åŁİ": 891,
      "æĽ´åĬł": 892,
      "å¥¹": 893,
      "ä¼ł": 894,
      "æºĲ": 895,
      "ä¸»è¦ģ": 896,
      "åĲĦ": 897,
      "åħ³éĶ®": 898,
      "ç¤º": 899,
      "æĬ¤": 900,
      "æĭ©": 901,
      "æĮĩ": 902,
      "åºĶè¯¥": 903,
      "åĲĳ": 904,
      "éĢł": 905,
      "æł¼": 906,
      "ç»Ħ": 907,
      "éĢīæĭ©": 908,
      "çķĮ": 909,
      "åħī": 910,
      "çļĦæķ": 911,
      "æĸ¹å¼ı": 912,
      "æĹħ": 913,
      "åĲĮæĹ¶": 914,
      "è¿ĳ": 915,
      "èĥ½å¤Ł": 916,
      "ç¯ĩæĸĩç«ł": 917,
      "èĲ½": 918,
      "ç©¶": 919,
      "è£": 920,
      "åĨħå®¹": 921,
      "è°ĥ": 922,
      "äººä»¬": 923,
      "åı£": 924,
      "çĪ±": 925,
      "ï¼Ľ": 926,
      "è¯Ńè¨Ģ": 927,
      "è§Ĩ": 928,
      "åĳ³": 929,
      "ç©º": 930,
      "çº¢": 931,
      "åĮº": 932,
      "èĢĥ": 933,
      "ä»·": 934,
      "åĲĹ": 935,
      "åħ³äºİ": 936,
      "çĬ": 937,
      "ç½ĳ": 938,
      "èĬ±": 939,
      "åĳĬ": 940,
      "æĺ¯ä¸Ģä¸ª": 941,
      "ä¾ĭå¦Ĥ": 942,
      "æľªæĿ¥": 943,
      "çĹħ": 944,
      "é¤": 945,
      "è®¡ç®Ĺ": 946,
      "å¿«": 947,
      "å¹¿": 948,
      "æľºåĻ¨": 949,
      "ç®¡": 950,
      "æĸ¹æ³ķ": 951,
      "æĸ¹éĿ¢": 952,
      "é¢Ħ": 953,
      "å¢ŀ": 954,
      "ï¼ī": 955,
      "åķĨ": 956,
      "éªĮ": 957,
      "é¤Ĳ": 958,
      "æĢĿ": 959,
      "Ķç©¶": 960,
      "ç¦": 961,
      "ä¹¦": 962,
      "ä¸Ķ": 963,
      "åĩĨ": 964,
      "å®Į": 965,
      "åĩł": 966,
      "é¦ĸ": 967,
      "éĵ": 968,
      "å®¢": 969,
      "éĶĻ": 970,
      "åĪ°äºĨ": 971,
      "é¡¹": 972,
      "åħ¶ä»ĸ": 973,
      "ä¼ĺ": 974,
      "è¶Ĭ": 975,
      "ä»¥åıĬ": 976,
      "ä¸»é¢ĺ": 977,
      "é¸": 978,
      "å¼ķ": 979,
      "éĩĳ": 980,
      "è®¸": 981,
      "è¯Ħ": 982,
      "æļ": 983,
      "æ¸ħ": 984,
      "åħĪ": 985,
      "ç´ł": 986,
      "åĬŁ": 987,
      "æ£": 988,
      "å¤ĩ": 989,
      "è½»": 990,
      "æİ¥": 991,
      "è§ī": 992,
      "åĪĹ": 993,
      "ï¼Ī": 994,
      "è¯»": 995,
      "èµĦ": 996,
      "æĪĺ": 997,
      "èĮ": 998,
      "åĪĨç±»": 999,
      "å§ĭ": 1000,
      "ä»Ĭ": 1001,
      "ä¸ªäºº": 1002,
      "éĺ³": 1003,
      "çŁŃ": 1004,
      "èĩ´": 1005,
      "åŃĺ": 1006,
      "åĵª": 1007,
      "æµĭ": 1008,
      "æķĻ": 1009,
      "æĢģ": 1010,
      "æ¸©": 1011,
      "ç»Ń": 1012,
      "åĢĻ": 1013,
      "ï¼ģ": 1014,
      "æľĭ": 1015,
      "æŀĲ": 1016,
      "ç¼ĸ": 1017,
      "ä¸ĸçķĮ": 1018,
      "åħ±": 1019,
      "ä½Ĩæĺ¯": 1020,
      "åĲ«": 1021,
      "æľĪ": 1022,
      "èıľ": 1023,
      "æľĭåıĭ": 1024,
      "çº¦": 1025,
      "åħĭ": 1026,
      "ç§¯": 1027,
      "ç«ĭ": 1028,
      "çİĩ": 1029,
      "åĽŀçŃĶ": 1030,
      "æĸĩåĮĸ": 1031,
      "åĪĨæŀĲ": 1032,
      "å¤ĦçĲĨ": 1033,
      "åı²": 1034,
      "ç»Ĩ": 1035,
      "çļĦæĥ": 1036,
      "ä¸Ģä¸ĭ": 1037,
      "æĶ¯": 1038,
      "åĩıå°ĳ": 1039,
      "åŁİå¸Ĥ": 1040,
      "è±¡": 1041,
      "å±±": 1042,
      "ä¹ĭä¸Ģ": 1043,
      "è¶³": 1044,
      "è¿Ļç¯ĩæĸĩç«ł": 1045,
      "ä¸ŃåĽ½": 1046,
      "æķ´": 1047,
      "åĲ¦": 1048,
      "å¤į": 1049,
      "ç¬¬": 1050,
      "åĪĻ": 1051,
      "æ»¡": 1052,
      "åĨµ": 1053,
      "ä¿ĿæĬ¤": 1054,
      "çłĶç©¶": 1055,
      "ĺè¦ģ": 1056,
      "èĳ": 1057,
      "åħĥ": 1058,
      "è§Ĵ": 1059,
      "ç¥ŀ": 1060,
      "é¥®": 1061,
      "20": 1062,
      "å·²ç»ı": 1063,
      "åĥ": 1064,
      "æľĽ": 1065,
      "è®¸å¤ļ": 1066,
      "æİ¢": 1067,
      "äºĨä¸Ģ": 1068,
      "èĩªå·±çļĦ": 1069,
      "ä¸¤ä¸ª": 1070,
      "ç³ĸ": 1071,
      "éĩĩ": 1072,
      "åıį": 1073,
      "ç¿": 1074,
      "è°¢": 1075,
      "èĢģ": 1076,
      "äº§åĵģ": 1077,
      "çº¿": 1078,
      "åĪĴ": 1079,
      "è¾ĵ": 1080,
      "çľŁ": 1081,
      "åĮ»çĸĹ": 1082,
      "æŃ¤å¤ĸ": 1083,
      "çĭĹ": 1084,
      "ç³»ç»Ł": 1085,
      "æĽ´å¤ļ": 1086,
      "è§Ħ": 1087,
      "å°½": 1088,
      "éĢŁ": 1089,
      "åĶ": 1090,
      "çħ": 1091,
      "è¶£": 1092,
      "è·¯": 1093,
      "éĻ©": 1094,
      "å¥³": 1095,
      "åıĤ": 1096,
      "çļĦäºº": 1097,
      "èģĶ": 1098,
      "åĲĥ": 1099,
      "ä¿ĿæĮģ": 1100,
      "ä»½": 1101,
      "æĸ¯": 1102,
      "è¥": 1103,
      "åħ¨çĲĥ": 1104,
      "æĺ¯ä¸Ģç§į": 1105,
      "æĬ¥": 1106,
      "æĺĵ": 1107,
      "çĽ´": 1108,
      "åĬ¨çī©": 1109,
      "Â·": 1110,
      "æľįåĬ¡": 1111,
      "çĻ½": 1112,
      "å¤´": 1113,
      "åĢ¼": 1114,
      "è¥¿": 1115,
      "æĸ½": 1116,
      "è§£åĨ³": 1117,
      "æİĴ": 1118,
      "æĪĲä¸º": 1119,
      "ħäºĭ": 1120,
      "åĨį": 1121,
      "åĥı": 1122,
      "çĥŃ": 1123,
      "çİ¯ä¿Ŀ": 1124,
      "ä»ĭ": 1125,
      "åĽ¾": 1126,
      "æ´»åĬ¨": 1127,
      "å²": 1128,
      "éļ¾": 1129,
      "ä¹°": 1130,
      "ä¾¿": 1131,
      "åĳ¨": 1132,
      "çļĦä¸Ģ": 1133,
      "æŁ¥": 1134,
      "æĪĸèĢħ": 1135,
      "èİ·": 1136,
      "è¾ĥ": 1137,
      "èĻĳ": 1138,
      "æŀĦ": 1139,
      "æĿ¡": 1140,
      "ç¤¾ä¼ļ": 1141,
      "å®īåħ¨": 1142,
      "10": 1143,
      "è¿ĲåĬ¨": 1144,
      "è§ģ": 1145,
      "çīĩ": 1146,
      "åĲ¬": 1147,
      "èº«ä½ĵ": 1148,
      "ç»ĻæĪĳ": 1149,
      "è¯Ĺ": 1150,
      "åıĳçİ°": 1151,
      "èĩ³": 1152,
      "æĲ": 1153,
      "çļĦæĥħ": 1154,
      "æ¼Ķ": 1155,
      "éħį": 1156,
      "éļı": 1157,
      "åıĺåĮĸ": 1158,
      "çİ°åľ¨": 1159,
      "ãĢĤâĢĿ": 1160,
      "æīĵ": 1161,
      "ç§ĳæĬĢ": 1162,
      "åħ¶ä¸Ń": 1163,
      "ç»ĥ": 1164,
      "åºı": 1165,
      "æĶ¶": 1166,
      "çĬ¶": 1167,
      "è®¤ä¸º": 1168,
      "å¼ł": 1169,
      "èĤ²": 1170,
      "å¤©æ°Ķ": 1171,
      "ä¸½": 1172,
      "ç´¢": 1173,
      "éĤ£ä¹Ī": 1174,
      "æĪĳä»¬çļĦ": 1175,
      "åĳ½": 1176,
      "ä¹ĭéĹ´": 1177,
      "äº«": 1178,
      "æĬĬ": 1179,
      "ç²¾": 1180,
      "è®°": 1181,
      "æ¶Ī": 1182,
      "¹æŀľ": 1183,
      "æħ": 1184,
      "åħħ": 1185,
      "èĥ½åĬĽ": 1186,
      "çĽ¸åħ³": 1187,
      "èĭ¹æŀľ": 1188,
      "äºĮ": 1189,
      "ä½łçļĦ": 1190,
      "åİĨåı²": 1191,
      "æĶ¿": 1192,
      "åĲ¸": 1193,
      "å¾Īå¤ļ": 1194,
      "åı¤": 1195,
      "çŃĸ": 1196,
      "å¡": 1197,
      "å¸¦æĿ¥": 1198,
      "çı": 1199,
      "æ¤": 1200,
      "æĳĺè¦ģ": 1201,
      "åĽŃ": 1202,
      "åħ·æľī": 1203,
      "è´Ń": 1204,
      "ç¢": 1205,
      "åħ´": 1206,
      "éĺŁ": 1207,
      "å¸Ī": 1208,
      "ä½İ": 1209,
      "çĮ«": 1210,
      "å¤±": 1211,
      "éĹ¨": 1212,
      "æ¬¾": 1213,
      "ç»´": 1214,
      "æ²»": 1215,
      "åį³": 1216,
      "ç»Ļå®ļçļĦ": 1217,
      "éĹ»": 1218,
      "ç§ĳåŃ¦": 1219,
      "ç§°": 1220,
      "å¸ĥ": 1221,
      "æ¢": 1222,
      "çĭ¬": 1223,
      "åħį": 1224,
      "æŃĮ": 1225,
      "è¯ī": 1226,
      "éĩĬ": 1227,
      "äºĴ": 1228,
      "èįĲ": 1229,
      "åĭ": 1230,
      "éŁ³ä¹Ĳ": 1231,
      "ç»Ļåĩº": 1232,
      "å°Ŀ": 1233,
      "çļĦæĦ": 1234,
      "¦Ĥ": 1235,
      "çŃĶæ¡Ī": 1236,
      "æīį": 1237,
      "æĿĲ": 1238,
      "è¿Ļç§į": 1239,
      "è®¾è®¡": 1240,
      "ç§¯æŀģ": 1241,
      "ç»į": 1242,
      "å¼Ģå§ĭ": 1243,
      "ä»»åĬ¡": 1244,
      "èĲ¥": 1245,
      "æĿ¾": 1246,
      "äºĨè§£": 1247,
      "éĽĨ": 1248,
      "è¡¨è¾¾": 1249,
      "ä»ĭç»į": 1250,
      "ä¸ŃæıĲåıĸ": 1251,
      "åı¥è¯Ŀ": 1252,
      "çļĦå½±åĵį": 1253,
      "å¯¼èĩ´": 1254,
      "å¯Į": 1255,
      "è¯¯": 1256,
      "åŃ£": 1257,
      "å¿ħ": 1258,
      "å¨": 1259,
      "èĽ": 1260,
      "å¯¹äºİ": 1261,
      "æ¨¡åŀĭ": 1262,
      "åħ·ä½ĵ": 1263,
      "è®¡ç®Ĺæľº": 1264,
      "èĭ±": 1265,
      "çĶ·": 1266,
      "æĥħæĦŁ": 1267,
      "æľºåĻ¨åŃ¦ä¹ł": 1268,
      "çĲĨè§£": 1269,
      "æİ¨èįĲ": 1270,
      "çļĦæĬ": 1271,
      "è½¬": 1272,
      "å®ŀçİ°": 1273,
      "æľĢè¿ĳ": 1274,
      "æĸ°çļĦ": 1275,
      "æĺ¯åĲ¦": 1276,
      "éĢļå¸¸": 1277,
      "åı·": 1278,
      "åįĩ": 1279,
      "åİĭ": 1280,
      "è®¨": 1281,
      "é¦Ļ": 1282,
      "éĻ¤": 1283,
      "èµĽ": 1284,
      "è®²": 1285,
      "åĬ¿": 1286,
      "ä¸ĵ": 1287,
      "ä»Ĭå¤©": 1288,
      "æĽ´å¥½": 1289,
      "èĤī": 1290,
      "é²": 1291,
      "åĮĹ": 1292,
      "ä¸įæĸŃ": 1293,
      "åĲĦç§į": 1294,
      "ä¿®": 1295,
      "æĿİ": 1296,
      "è´¹": 1297,
      "é»ĳ": 1298,
      "éĶĢ": 1299,
      "æ°ĳ": 1300,
      "åľ°çĲĥ": 1301,
      "è®¡åĪĴ": 1302,
      "å¸Ĥåľº": 1303,
      "è£ħ": 1304,
      "åįİ": 1305,
      "æĪı": 1306,
      "åįģ": 1307,
      "åħ³éĶ®è¯į": 1308,
      "åĳĬè¯ī": 1309,
      "è¯ģ": 1310,
      "æŁĵ": 1311,
      "åħ»": 1312,
      "çļĦéĹ®é¢ĺ": 1313,
      "æīĢæľī": 1314,
      "ä¸Ģæ®µ": 1315,
      "é©¬": 1316,
      "èħ": 1317,
      "åĸĦ": 1318,
      "åĽ´": 1319,
      "æīĢä»¥": 1320,
      "çĶ¨æĪ·": 1321,
      "æ³¨æĦı": 1322,
      "èīº": 1323,
      "æĻļ": 1324,
      "ç»Ī": 1325,
      "æĪĳçļĦ": 1326,
      "åįķè¯į": 1327,
      "å¯»": 1328,
      "è¯ĨåĪ«": 1329,
      "éĢĤåĲĪ": 1330,
      "å¤ı": 1331,
      "ä¸Ģèµ·": 1332,
      "æİ§": 1333,
      "ç¦»": 1334,
      "å¸Į": 1335,
      "æŃ£åľ¨": 1336,
      "çª": 1337,
      "AI": 1338,
      "æĪĳä»¬åı¯ä»¥": 1339,
      "èĳĹ": 1340,
      "å¾ĭ": 1341,
      "éĻħ": 1342,
      "éĺ²": 1343,
      "æĸ°éĹ»": 1344,
      "æ¯Ķå¦Ĥ": 1345,
      "è¶ħ": 1346,
      "ä»ĸçļĦ": 1347,
      "åĽĽ": 1348,
      "è¿ľ": 1349,
      "å¤ªéĺ³": 1350,
      "åŃ©": 1351,
      "è¦ģæ±Ĥ": 1352,
      "çŁ¥éģĵ": 1353,
      "çļĦæĺ¯": 1354,
      "æĹłæ³ķ": 1355,
      "å°Ķ": 1356,
      "å¹¶ä¸Ķ": 1357,
      "ä¸Ģç§į": 1358,
      "å·§": 1359,
      "æĦŁåĪ°": 1360,
      "æŀĹ": 1361,
      "æ³Ľ": 1362,
      "å£°": 1363,
      "æĴ": 1364,
      "èµ°": 1365,
      "åĳ¢": 1366,
      "åħ³ç³»": 1367,
      "æŁĲ": 1368,
      "å°ıè¯´": 1369,
      "çĦ¶åĲİ": 1370,
      "åı¦": 1371,
      "ä»ħ": 1372,
      "ï¼ļâĢľ": 1373,
      "è´Ł": 1374,
      "æĹħæ¸¸": 1375,
      "è¿ĩç¨ĭ": 1376,
      "åįĹ": 1377,
      "æ¯ıä¸ª": 1378,
      "å£«": 1379,
      "ç½®": 1380,
      "åŃĺåľ¨": 1381,
      "æĢ»ç»ĵ": 1382,
      "å¤§çļĦ": 1383,
      "åİħ": 1384,
      "èģĮ": 1385,
      "è§£éĩĬ": 1386,
      "èĢĥèĻĳ": 1387,
      "å¾·": 1388,
      "æĪĲåĬŁ": 1389,
      "æĭī": 1390,
      "è´¨éĩı": 1391,
      "è¾¹": 1392,
      "æĹ©": 1393,
      "çļĦæ°": 1394,
      "ç®¡çĲĨ": 1395,
      "éĻį": 1396,
      "èĽĭ": 1397,
      "çļĦæĢ": 1398,
      "åŃ¦çĶŁ": 1399,
      "æĺ¾": 1400,
      "ĳæĪĺ": 1401,
      "åĦ": 1402,
      "æĪ¿": 1403,
      "çŃīçŃī": 1404,
      "èŀ": 1405,
      "ªæĸ½": 1406,
      "æ®µèĲ½": 1407,
      "è¡Įä¸º": 1408,
      "ç¾İåĽ½": 1409,
      "ä¸ľ": 1410,
      "æĪĳæĥ³": 1411,
      "éĶĻè¯¯": 1412,
      "åĮ»çĶŁ": 1413,
      "å¢ŀåĬł": 1414,
      "ä¸Ģç¯ĩ": 1415,
      "è¾ĳ": 1416,
      "çĨ": 1417,
      "ä¼¼": 1418,
      "å°Ŀè¯ķ": 1419,
      "äºĶ": 1420,
      "çħ§": 1421,
      "å¯¹è¯Ŀ": 1422,
      "å®ĮæĪĲ": 1423,
      "æ¦Ĥ": 1424,
      "å¯Ĩ": 1425,
      "çİ©": 1426,
      "æĺ¯ä»Ģä¹Ī": 1427,
      "å¹¿æ³Ľ": 1428,
      "ç±³": 1429,
      "ä¸ĭéĿ¢": 1430,
      "ä½ľä¸º": 1431,
      "åĪ©çĶ¨": 1432,
      "çĶ»": 1433,
      "è¿Ļæ®µ": 1434,
      "ä¸įåĲĮçļĦ": 1435,
      "çģ«": 1436,
      "èĩªåĬ¨": 1437,
      "æľĢåĲİ": 1438,
      "é¥®é£Ł": 1439,
      "æĭ¥": 1440,
      "æļĸ": 1441,
      "çİĭ": 1442,
      "éģ¿": 1443,
      "åĴĸ": 1444,
      "å½ĵçĦ¶": 1445,
      "æ¿": 1446,
      "é£Łçī©": 1447,
      "è®Ń": 1448,
      "çļĦåıĳå±ķ": 1449,
      "å®³": 1450,
      "å¾ĹåĪ°": 1451,
      "æµİ": 1452,
      "åı°": 1453,
      "æĽ´å¥½åľ°": 1454,
      "åĽ¢": 1455,
      "ç¡®ä¿Ŀ": 1456,
      "å¿µ": 1457,
      "åı¯èĥ½ä¼ļ": 1458,
      "çļĦåľ°": 1459,
      "çļĦæķ°": 1460,
      "ä¼ģ": 1461,
      "çļĦä¿¡æģ¯": 1462,
      "ãĢĤ\\": 1463,
      "ä»»ä½ķ": 1464,
      "æ°ĶåĢĻ": 1465,
      "äºļ": 1466,
      "ç®Ĺæ³ķ": 1467,
      "åķ¡": 1468,
      "èŀį": 1469,
      "çļĦåºĶçĶ¨": 1470,
      "äº¬": 1471,
      "ä¸įæĺ¯": 1472,
      "æłĩé¢ĺ": 1473,
      "äº§çĶŁ": 1474,
      "éĻĲ": 1475,
      "æĤ¨çļĦ": 1476,
      "åĴĸåķ¡": 1477,
      "æĥħåĨµ": 1478,
      "æ´ģ": 1479,
      "æĵ": 1480,
      "å®¤": 1481,
      "å¸ĮæľĽ": 1482,
      "æķħäºĭ": 1483,
      "èįī": 1484,
      "èİ·å¾Ĺ": 1485,
      "æį¢": 1486,
      "è¿ĺæľī": 1487,
      "åł": 1488,
      "éĽ¨": 1489,
      "äººçļĦ": 1490,
      "ç»ľ": 1491,
      "äº¤éĢļ": 1492,
      "æĢİ": 1493,
      "å·´": 1494,
      "è¾ĵåħ¥": 1495,
      "çĽ®æłĩ": 1496,
      "åĦ¿": 1497,
      "ç»ıæµİ": 1498,
      "è¿Ļæł·": 1499,
      "çĶŁæĪĲä¸Ģä¸ª": 1500,
      "å¹²": 1501,
      "é»Ħ": 1502,
      "è¡¨ç¤º": 1503,
      "é¦ĸåħĪ": 1504,
      "çĶ¨äºİ": 1505,
      "åı¯ä»¥å¸®åĬ©": 1506,
      "éħĴ": 1507,
      "è¡£": 1508,
      "é£ŀ": 1509,
      "éĥ½æĺ¯": 1510,
      "ç³ĸæŀľ": 1511,
      "ä¼Ĺ": 1512,
      "å¾ģ": 1513,
      "æľīæķĪ": 1514,
      "é¤Ĳåİħ": 1515,
      "çļĦä¸»è¦ģ": 1516,
      "ä½łåı¯ä»¥": 1517,
      "éĺħ": 1518,
      "åĮħåĲ«": 1519,
      "çīĽ": 1520,
      "çļĦæł": 1521,
      "ç©¿": 1522,
      "åºĹ": 1523,
      "æĹħè¡Į": 1524,
      "æī¾åĪ°": 1525,
      "å¾Ģ": 1526,
      "æķĻèĤ²": 1527,
      "å±ŀ": 1528,
      "åºŃ": 1529,
      "ç»ĵæŀľ": 1530,
      "ç®Ģåįķ": 1531,
      "¡æŁĵ": 1532,
      "éľĢæ±Ĥ": 1533,
      "æ¸¸æĪı": 1534,
      "æ¿Ģ": 1535,
      "çļĦéĩįè¦ģ": 1536,
      "éĥ¨åĪĨ": 1537,
      "éº": 1538,
      "åĳĬè¯īæĪĳ": 1539,
      "ä½¿åħ¶": 1540,
      "åĿĩ": 1541,
      "éģ¿åħį": 1542,
      "éĩĩåıĸ": 1543,
      "æ©": 1544,
      "å±ħ": 1545,
      "æ½": 1546,
      "è§ĤçĤ¹": 1547,
      "åĩłä¸ª": 1548,
      "æİªæĸ½": 1549,
      "ç½ĳç»ľ": 1550,
      "åĪ¶ä½ľ": 1551,
      "çīĮ": 1552,
      "åĩĨç¡®": 1553,
      "ä¹Łæĺ¯": 1554,
      "æľīåħ³": 1555,
      "å¾®": 1556,
      "ä»¤": 1557,
      "äºī": 1558,
      "æĮģç»Ń": 1559,
      "æĶ¯æĮģ": 1560,
      "èĥ½æºĲ": 1561,
      "ä¸ĩ": 1562,
      "ä½ĵéªĮ": 1563,
      "åª": 1564,
      "é±": 1565,
      "èµ·æĿ¥": 1566,
      "äºĨä¸Ģä¸ª": 1567,
      "é±¼": 1568,
      "ä½ľçĶ¨": 1569,
      "åī§": 1570,
      "ä¼ģä¸ļ": 1571,
      "è¡¨çİ°": 1572,
      "éĩįè¦ģçļĦ": 1573,
      "ç«Ļ": 1574,
      "ç»¿": 1575,
      "ä¸įèĥ½": 1576,
      "çĽĬ": 1577,
      "é¼": 1578,
      "çĳ": 1579,
      "æłĳ": 1580,
      "åıĳçĶŁ": 1581,
      "ä»ĸä»¬çļĦ": 1582,
      "ä¹Łåı¯ä»¥": 1583,
      "00": 1584,
      "èĵ": 1585,
      "èī¯": 1586,
      "éĺħè¯»": 1587,
      "åĪĩ": 1588,
      "å°ıçº¢": 1589,
      "èĩªçĦ¶è¯Ńè¨Ģ": 1590,
      "æ¤į": 1591,
      "¾çĹħ": 1592,
      "é¾": 1593,
      "çĶ±äºİ": 1594,
      "çİ°ä»£": 1595,
      "ä¸īä¸ª": 1596,
      "å¤ľ": 1597,
      "åĵªäºĽ": 1598,
      "åĪ¤": 1599,
      "ç¤¾äº¤": 1600,
      "å®Ŀ": 1601,
      "å¾ħ": 1602,
      "ç¬¦": 1603,
      "æ²¹": 1604,
      "æĭ¥æľī": 1605,
      "åŁºäºİ": 1606,
      "å¥¶": 1607,
      "âĢĿï¼Į": 1608,
      "æ¹": 1609,
      "åĬłåħ¥": 1610,
      "åħ³æ³¨": 1611,
      "çº§": 1612,
      "å¥ĩ": 1613,
      "è¿ĺæĺ¯": 1614,
      "èī²çļĦ": 1615,
      "ç»ĩ": 1616,
      "è¯Ĭ": 1617,
      "æ±¡æŁĵ": 1618,
      "åıĪ": 1619,
      "å¦Ĥæŀľä½ł": 1620,
      "é¢ľ": 1621,
      "éģĩ": 1622,
      "åĬª": 1623,
      "ä¸¾": 1624,
      "åºľ": 1625,
      "åĿĹ": 1626,
      "ï¼Ł<|": 1627,
      "é¦Ĩ": 1628,
      "åĩºçİ°": 1629,
      "è¿ŀ": 1630,
      "çļĦæĸĩç«ł": 1631,
      "ä¸°": 1632,
      "é¸¡": 1633,
      "ç±»åŀĭ": 1634,
      "ä»¥ä¸ĭåı¥åŃĲ": 1635,
      "ç¡®å®ļ": 1636,
      "åĪ»": 1637,
      "å®¶åºŃ": 1638,
      "æĮĳæĪĺ": 1639,
      "æĺ¥": 1640,
      "å®¢æĪ·": 1641,
      "èµĦæºĲ": 1642,
      "çļĦæİ": 1643,
      "åĬªåĬĽ": 1644,
      "åĶ®": 1645,
      "è½¯": 1646,
      "ç¿»": 1647,
      "èĪĴ": 1648,
      "èį¯": 1649,
      "è®Ńç»ĥ": 1650,
      "æİ§åĪ¶": 1651,
      "èĻ½": 1652,
      "æľīè¶£": 1653,
      "éĿĻ": 1654,
      "æĢ§åĴĮ": 1655,
      "æķ£": 1656,
      "è¿½": 1657,
      "åĬŁèĥ½": 1658,
      "è¿Ļæĺ¯": 1659,
      "ä»İèĢĮ": 1660,
      "èĦĳ": 1661,
      "çļĦæĬĢ": 1662,
      "æŃ£ç¡®": 1663,
      "åıĹåĪ°": 1664,
      "æĸ¹æ¡Ī": 1665,
      "çļĦåı¥åŃĲ": 1666,
      "çļĦæĻ": 1667,
      "ä¸ºäºĨ": 1668,
      "ç§ĭ": 1669,
      "é¸Ł": 1670,
      "æ£Ģ": 1671,
      "ä¸¥": 1672,
      "æĬķ": 1673,
      "éŃ": 1674,
      "èŃ": 1675,
      "è§Ĵèī²": 1676,
      "æ²»çĸĹ": 1677,
      "æĤ¨åı¯ä»¥": 1678,
      "åħ¸": 1679,
      "çĸ¾çĹħ": 1680,
      "é¢Ħæµĭ": 1681,
      "èīºæľ¯": 1682,
      "å±Ĥ": 1683,
      "æ²Ļ": 1684,
      "çļĦç¾": 1685,
      "å½Ĵ": 1686,
      "åİĭåĬĽ": 1687,
      "ç¨ĭåºı": 1688,
      "æ¯Ķè¾ĥ": 1689,
      "æķĪçİĩ": 1690,
      "æİ¢ç´¢": 1691,
      "åģĩ": 1692,
      "äºĳ": 1693,
      "è¯¦": 1694,
      "äººå·¥æĻºèĥ½æĬĢæľ¯": 1695,
      "äºĭä»¶": 1696,
      "èĮĥ": 1697,
      "èĶ": 1698,
      "ä¸ĬçļĦ": 1699,
      "æĤ£": 1700,
      "æĿ¯": 1701,
      "è´Ńä¹°": 1702,
      "ä¼łç»Ł": 1703,
      "æĿĤ": 1704,
      "çļĦæĦı": 1705,
      "çŁ³": 1706,
      "èĻ½çĦ¶": 1707,
      "éĻ¢": 1708,
      "æľĢç»Ī": 1709,
      "éĨ": 1710,
      "ä¸įä»ħ": 1711,
      "æĿ¥è¶Ĭ": 1712,
      "æ°ĶåĢĻåıĺåĮĸ": 1713,
      "çĶŁçī©": 1714,
      "çĶŁåĳ½": 1715,
      "é²ľ": 1716,
      "è¶ĬæĿ¥è¶Ĭ": 1717,
      "æĮī": 1718,
      "ç¦ı": 1719,
      "çĶµåŃĲ": 1720,
      "æīįèĥ½": 1721,
      "æµª": 1722,
      "æĪĳä»¬éľĢè¦ģ": 1723,
      "éļıçĿĢ": 1724,
      "é£İéĻ©": 1725,
      "æ¥": 1726,
      "å°±æĺ¯": 1727,
      "æĽ²": 1728,
      "ä¸Ģä»½": 1729,
      "æ´ĭ": 1730,
      "è¯Ħè®º": 1731,
      "çķ¥": 1732,
      "æ±½": 1733,
      "åªĴ": 1734,
      "çĥ¤": 1735,
      "ä¸´": 1736,
      "ç¼º": 1737,
      "åĽ°": 1738,
      "ä¸Ģä½į": 1739,
      "åį¡": 1740,
      "è·ĳ": 1741,
      "æĿ¥è¯´": 1742,
      "çĵ": 1743,
      "èĥĮ": 1744,
      "åı¶": 1745,
      "åĨ°": 1746,
      "æĢİä¹Ī": 1747,
      "å»ºç«ĭ": 1748,
      "ç¼ĸè¾ĳ": 1749,
      "ä¸°å¯Į": 1750,
      "åĪĽéĢł": 1751,
      "æĶ¿åºľ": 1752,
      "åİŁåĽł": 1753,
      "æĻ®": 1754,
      "å½©": 1755,
      "ä»·åĢ¼": 1756,
      "èĩªçĦ¶è¯Ńè¨Ģå¤ĦçĲĨ": 1757,
      "è¯¦ç»Ĩ": 1758,
      "æĿĥ": 1759,
      "åĿļ": 1760,
      "èĵĿ": 1761,
      "æł¡": 1762,
      "çļĦæī": 1763,
      "æ°´æŀľ": 1764,
      "æ¯ĶèµĽ": 1765,
      "åĳ¼": 1766,
      "æĽ´å¤ļçļĦ": 1767,
      "çļĦç¾İ": 1768,
      "åĽłç´ł": 1769,
      "çĶŁæĢģ": 1770,
      "è¡¨æĺİ": 1771,
      "å¤ļå°ĳ": 1772,
      "ä½ľèĢħ": 1773,
      "è¯Ńæ³ķ": 1774,
      "äº²": 1775,
      "èľ": 1776,
      "æĸĩæ¡Ī": 1777,
      "æĹ¶åĢĻ": 1778,
      "ä¹ĭéĹ´çļĦ": 1779,
      "è¯ĬæĸŃ": 1780,
      "ç¬Ķ": 1781,
      "æĶ¹åıĺ": 1782,
      "æĹı": 1783,
      "ç»Ħç»ĩ": 1784,
      "åħ¬åĽŃ": 1785,
      "åĩĨå¤ĩ": 1786,
      "ä»¥ä¸ĭæĸĩæľ¬": 1787,
      "è¿ĺåı¯ä»¥": 1788,
      "åĬŀ": 1789,
      "å³": 1790,
      "èĴ": 1791,
      "æľºä¼ļ": 1792,
      "é¢ĺçĽ®": 1793,
      "è¯·éĹ®": 1794,
      "ä½ı": 1795,
      "ä¿ĥ": 1796,
      "é¢Ĺ": 1797,
      "çļĦæĥħæĦŁ": 1798,
      "çªģ": 1799,
      "æĿĲæĸĻ": 1800,
      "çĶŁäº§": 1801,
      "çĽĳ": 1802,
      "ç¼ĵ": 1803,
      "éĴŁ": 1804,
      "åĲįç§°": 1805,
      "è¿İ": 1806,
      "é£İæł¼": 1807,
      "ç»ĵæŀĦ": 1808,
      "çķĻ": 1809,
      "å°¼": 1810,
      "çĻ¾": 1811,
      "çļĦæĸ¹æ³ķ": 1812,
      "å½ĵåľ°": 1813,
      "å¹´è½»": 1814,
      "ç»ıéªĮ": 1815,
      "å®ĥçļĦ": 1816,
      "çī¹å¾ģ": 1817,
      "åıĺå¾Ĺ": 1818,
      "çĸ«": 1819,
      "æ³¢": 1820,
      "äº®": 1821,
      "çłģ": 1822,
      "é£Łåĵģ": 1823,
      "çĤ¼": 1824,
      "è¡Įä¸ļ": 1825,
      "åľ¨è¿Ļä¸ª": 1826,
      "åķĨåĵģ": 1827,
      "äº«åıĹ": 1828,
      "å¤§éĩı": 1829,
      "é¢ľèī²": 1830,
      "å¯»æī¾": 1831,
      "åªĴä½ĵ": 1832,
      "å¦ĤæŀľæĤ¨": 1833,
      "è¡¡": 1834,
      "å¼Ĥ": 1835,
      "å¿ĥçĲĨ": 1836,
      "çļĦæµ": 1837,
      "ç½Ĺ": 1838,
      "çļĦæĸĩæľ¬": 1839,
      "éĿĴ": 1840,
      "æĭŁ": 1841,
      "æľ¨": 1842,
      "åĤ": 1843,
      "è®¨è®º": 1844,
      "è¡ĮåĬ¨": 1845,
      "è´£": 1846,
      "çļ®": 1847,
      "æ´²": 1848,
      "åĲ§": 1849,
      "é¡»": 1850,
      "è´ŁéĿ¢": 1851,
      "ä¸Ģå®ļ": 1852,
      "åħħæ»¡": 1853,
      "åıĤåĬł": 1854,
      "å¨ģ": 1855,
      "ä¸ºä»Ģä¹Ī": 1856,
      "ĥåľ": 1857,
      "âĢĿãĢĤ": 1858,
      "å¼Ģåıĳ": 1859,
      "è¯ĳ": 1860,
      "èĳĹåĲį": 1861,
      "ä»·æł¼": 1862,
      "æ¯ıä¸ªäºº": 1863,
      "åŀĥåľ": 1864,
      "åŀĥåľ¾": 1865,
      "ä¼¤": 1866,
      "éĥ¨çĶµå½±": 1867,
      "æ¯ıå¤©": 1868,
      "ä¸Ńå¿ĥ": 1869,
      "å·¥åħ·": 1870,
      "çŁ¥è¯Ĩ": 1871,
      "ĊĊ": 1872,
      "ãĢĤ\"": 1873,
      "æ±½è½¦": 1874,
      "ä¸ĢæŃ¥": 1875,
      "è®¾å¤ĩ": 1876,
      "æ¯į": 1877,
      "ç¾¤": 1878,
      "æ»©": 1879,
      "åħ´è¶£": 1880,
      "åĩºäºĨ": 1881,
      "èĶ¬": 1882,
      "ç´§": 1883,
      "åĮĹäº¬": 1884,
      "åľºæĻ¯": 1885,
      "ä½ľåĵģ": 1886,
      "åĵģçīĮ": 1887,
      "ä¸ĵä¸ļ": 1888,
      "ä»į": 1889,
      "æĶ¹åĸĦ": 1890,
      "åľŁ": 1891,
      "éĤ®": 1892,
      "è¿Ļä¸ªéĹ®é¢ĺ": 1893,
      "çļĦæ¸": 1894,
      "æł¹æį®ç»Ļå®ļçļĦ": 1895,
      "æĽ¿": 1896,
      "çļĦæķħäºĭ": 1897,
      "æĪĳä¼ļ": 1898,
      "è®²è¿°": 1899,
      "è¿Ļåı¥è¯Ŀ": 1900,
      "ç¾İä¸½": 1901,
      "çļĦæŃ": 1902,
      "çļĦæĶ": 1903,
      "å¸®æĪĳ": 1904,
      "éĩİ": 1905,
      "èĪĴéĢĤ": 1906,
      "åĪĽæĸ°": 1907,
      "éĺ¿": 1908,
      "çľł": 1909,
      "ä¸ĢçĽ´": 1910,
      "æīĭæľº": 1911,
      "ç§ĺ": 1912,
      "åº§": 1913,
      "æ¼«": 1914,
      "æ·±åº¦": 1915,
      "è¯¢": 1916,
      "åĩ»": 1917,
      "çļĦçĶµå½±": 1918,
      "æĶ¾æĿ¾": 1919,
      "é¡¹çĽ®": 1920,
      "åŃ©åŃĲ": 1921,
      "èĥľ": 1922,
      "çģµ": 1923,
      "çŃĳ": 1924,
      "éĢłæĪĲ": 1925,
      "æħ¢": 1926,
      "éĢĲ": 1927,
      "å·ŀ": 1928,
      "è¶ĭ": 1929,
      "éĩįæĸ°": 1930,
      "19": 1931,
      "éĩĳèŀį": 1932,
      "è§īå¾Ĺ": 1933,
      "å·¨": 1934,
      "ä¼ĳ": 1935,
      "çł´": 1936,
      "ä»¥ä¸ĭæĺ¯": 1937,
      "çĩ": 1938,
      "äºĭæĥħ": 1939,
      "åĲ¸å¼ķ": 1940,
      "åĪ¤æĸŃ": 1941,
      "åĨ³å®ļ": 1942,
      "èģĬ": 1943,
      "èĶ¬èıľ": 1944,
      "éĢģ": 1945,
      "å½ķ": 1946,
      "æ¤įçī©": 1947,
      "çļĦçŁ": 1948,
      "çĹĩ": 1949,
      "èĢĮä¸Ķ": 1950,
      "çĿ¡": 1951,
      "ä¸ŃæıĲåıĸåĩº": 1952,
      "èŃ¦": 1953,
      "æķ°åŃĹ": 1954,
      "åį°": 1955,
      "åĨĽ": 1956,
      "éĶ»": 1957,
      "åįı": 1958,
      "å·®": 1959,
      "åī©": 1960,
      "åı¦å¤ĸ": 1961,
      "éļĲ": 1962,
      "éĶ»çĤ¼": 1963,
      "ä½³": 1964,
      "æŃ¢": 1965,
      "æĪĳåı¯ä»¥": 1966,
      "é©¶": 1967,
      "ä¸Ģæ¬¡": 1968,
      "æ¸Ĳ": 1969,
      "æĢ§çļĦ": 1970,
      "çľĭåĪ°": 1971,
      "å»ºçŃĳ": 1972,
      "ç¿»è¯ĳ": 1973,
      "å°Ĭ": 1974,
      "éĩĩçĶ¨": 1975,
      "æľīä»Ģä¹Ī": 1976,
      "æ²³": 1977,
      "éĶĢåĶ®": 1978,
      "åı¯æĮģç»Ń": 1979,
      "çºª": 1980,
      "æĩ": 1981,
      "çľ¼": 1982,
      "è¶ĭåĬ¿": 1983,
      "å¿ħé¡»": 1984,
      "èª": 1985,
      "é¢ĳ": 1986,
      "æ°§": 1987,
      "ç®Ģæ´ģ": 1988,
      "æĸĩç«łä¸Ń": 1989,
      "å°Ĩåħ¶": 1990,
      "æ¢¦": 1991,
      "åĽ¢éĺŁ": 1992,
      "æĺ¨": 1993,
      "ä¸įä¼ļ": 1994,
      "éĴ±": 1995,
      "æĿ¿": 1996,
      "é©¾": 1997,
      "ç»ª": 1998,
      "ç§ģ": 1999,
      "åĪ¶å®ļ": 2000,
      "ä»¥ä¸Ĭ": 2001,
      "åĬ©äºİ": 2002,
      "åį«": 2003,
      "åĵĪ": 2004,
      "å¤įæĿĤ": 2005,
      "åĪĿ": 2006,
      "çļĦçł": 2007,
      "å¿«éĢŁ": 2008,
      "åĬ±": 2009,
      "åľ°åĮº": 2010,
      "çī¹çĤ¹": 2011,
      "èĩªçĶ±": 2012,
      "Ġ\"": 2013,
      "æķ°åŃ¦": 2014,
      "è¿Ļæ®µæĸĩæľ¬": 2015,
      "çī¹åĪ«": 2016,
      "æ¶ī": 2017,
      "ä¸Ģåıª": 2018,
      "éĥ½æľī": 2019,
      "ä»£è¡¨": 2020,
      "å±ŀäºİ": 2021,
      "çĦ¶èĢĮ": 2022,
      "æĥ³è¦ģ": 2023,
      "åĨľ": 2024,
      "çļĦæĳ": 2025,
      "æĺ¯åľ¨": 2026,
      "æĸĩåŃĹ": 2027,
      "æĳĦ": 2028,
      "èģĮä¸ļ": 2029,
      "æĥ¯": 2030,
      "çļĦæ²": 2031,
      "è´¢": 2032,
      "å¿Ĺ": 2033,
      "è¡Ģ": 2034,
      "çĽ®åīį": 2035,
      "èĹ": 2036,
      "ä¸ºæĤ¨": 2037,
      "è¯Ħä»·": 2038,
      "çĸĳ": 2039,
      "å®ŀä½ĵ": 2040,
      "æĲŃ": 2041,
      "ä¼¦": 2042,
      "ä¾Ŀ": 2043,
      "éĻįä½İ": 2044,
      "åĨ·": 2045,
      "éĴĪ": 2046,
      "å°ļ": 2047,
      "éĺ³åħī": 2048,
      "ç»ıåİĨ": 2049,
      "å²ģ": 2050,
      "å°½ç®¡": 2051,
      "åºķ": 2052,
      "åĲĪä½ľ": 2053,
      "å©": 2054,
      "æĬ¥éģĵ": 2055,
      "åħ¬åı¸çļĦ": 2056,
      "å¾Īå¥½": 2057,
      "åı¯ä»¥éĢļè¿ĩ": 2058,
      "çļĦçĶŁæ´»": 2059,
      "æ·»": 2060,
      "ä¸įè¦ģ": 2061,
      "éĤ®ä»¶": 2062,
      "æĺ¯æĮĩ": 2063,
      "ç²ī": 2064,
      "çļĦæĮ": 2065,
      "äººå·¥æĻºèĥ½åľ¨": 2066,
      "åĬłå¼º": 2067,
      "çĽĸ": 2068,
      "ç»§": 2069,
      "åįļ": 2070,
      "ç®ĢçŁŃ": 2071,
      "æķ°éĩı": 2072,
      "çī©è´¨": 2073,
      "ç¼ĸåĨĻ": 2074,
      "ä¿ĥè¿Ľ": 2075,
      "ä½łèĥ½": 2076,
      "æĥĬ": 2077,
      "çīĪ": 2078,
      "åħ±åĲĮ": 2079,
      "çļĦæĦŁ": 2080,
      "ç¾İé£Ł": 2081,
      "è®©æĪĳ": 2082,
      "å¼ºè°ĥ": 2083,
      "è¿ĻéĩĮ": 2084,
      "çļĦå»ºè®®": 2085,
      "æ±ĩ": 2086,
      "æľīåĬ©äºİ": 2087,
      "ä¸ĬæľĢ": 2088,
      "è¿Ļéĥ¨çĶµå½±": 2089,
      "å¹¸": 2090,
      "åĪļ": 2091,
      "å°Ħ": 2092,
      "çļĦæ¯": 2093,
      "æĹ¨": 2094,
      "ä¹łæĥ¯": 2095,
      "åŁºç¡": 2096,
      "è°¢è°¢": 2097,
      "åŁºç¡Ģ": 2098,
      "éĩįåĨĻ": 2099,
      "åıĮ": 2100,
      "æľīå¾Īå¤ļ": 2101,
      "ç¤¼": 2102,
      "èģĶç½ĳ": 2103,
      "æľīäºĽ": 2104,
      "èĻļ": 2105,
      "æķ´ä¸ª": 2106,
      "ä¸ĢåĲį": 2107,
      "ç§»": 2108,
      "ä½¿å¾Ĺ": 2109,
      "èĪŀ": 2110,
      "åĨ³çŃĸ": 2111,
      "éĵģ": 2112,
      "åĬĽåĴĮ": 2113,
      "åį´": 2114,
      "åĮ»åŃ¦": 2115,
      "äº¤æµģ": 2116,
      "å½¢å¼ı": 2117,
      "åį±": 2118,
      "ä¸įéĶĻ": 2119,
      "å±Ģ": 2120,
      "çļĦæķ°æį®": 2121,
      "æĬĢèĥ½": 2122,
      "å¡ĳ": 2123,
      "âĢĶ": 2124,
      "åįĪ": 2125,
      "èĮ¶": 2126,
      "è¿Ļæĺ¯ä¸Ģ": 2127,
      "æĤ£èĢħ": 2128,
      "ç¥¨": 2129,
      "å®ĩ": 2130,
      "åŁºæľ¬": 2131,
      "æľ¬æĸĩ": 2132,
      "æĬĢå·§": 2133,
      "æľºåĻ¨äºº": 2134,
      "å¯Ł": 2135,
      "å¹»": 2136,
      "çļĦæı": 2137,
      "æ¯Ĵ": 2138,
      "èģĶç³»": 2139,
      "çļĦç¤": 2140,
      "è¯´æĺİ": 2141,
      "çī¹å®ļ": 2142,
      "åı«": 2143,
      "Ġ-": 2144,
      "çŃīæĸ¹éĿ¢": 2145,
      "èķ": 2146,
      "ä»¤äºº": 2147,
      "æĭħ": 2148,
      "æİ¢è®¨": 2149,
      "åķĬ": 2150,
      "å¢ŀå¼º": 2151,
      "é¥Ń": 2152,
      "åĪĨéĴŁ": 2153,
      "æĢĿèĢĥ": 2154,
      "è¿ĩç¨ĭä¸Ń": 2155,
      "ç¹": 2156,
      "åįĥ": 2157,
      "æ¯Ľ": 2158,
      "åĸĿ": 2159,
      "çĭ¬çī¹": 2160,
      "è®©äºº": 2161,
      "æıĲåĪ°": 2162,
      "ä¸ªèĭ¹æŀľ": 2163,
      "å®£": 2164,
      "ä½įç½®": 2165,
      "èĢģå¸Ī": 2166,
      "å³°": 2167,
      "ç«ŀ": 2168,
      "è±Ĩ": 2169,
      "çº³": 2170,
      "æ¬¢è¿İ": 2171,
      "è¯ŃéŁ³": 2172,
      "æĸĩæľ¬ä¸Ń": 2173,
      "èĸ": 2174,
      "ç¬¬äºĮ": 2175,
      "éŀ": 2176,
      "æĬ½": 2177,
      "ä»ĺ": 2178,
      "å¥¥": 2179,
      "æ©Ļ": 2180,
      "åıªæľī": 2181,
      "åĿĲ": 2182,
      "éĢŁåº¦": 2183,
      "ä»¥ä¾¿": 2184,
      "è¡ĮæĺŁ": 2185,
      "ç«¯": 2186,
      "ç»Ŀ": 2187,
      "æĸĩåŃ¦": 2188,
      "éĢı": 2189,
      "è¿Ľä¸ĢæŃ¥": 2190,
      "èģļ": 2191,
      "æĦŁè§ī": 2192,
      "è·Ł": 2193,
      "è¯¾": 2194,
      "è¾ĵåĩº": 2195,
      "å®¹æĺĵ": 2196,
      "æĦŁè°¢": 2197,
      "ç¤¾äº¤åªĴä½ĵ": 2198,
      "å½¢æĪĲ": 2199,
      "æī§": 2200,
      "çģ¾": 2201,
      "æŃ£éĿ¢": 2202,
      "ä¹ħ": 2203,
      "çļĦæ°´": 2204,
      "ä½Ļ": 2205,
      "é¡º": 2206,
      "çļĦçľ": 2207,
      "æĦ¿": 2208,
      "çĦ¦": 2209,
      "é¹": 2210,
      "é©¾é©¶": 2211,
      "çĮ®": 2212,
      "ç»ĦæĪĲ": 2213,
      "ç¬ĳ": 2214,
      "è¿Ļæĺ¯ä¸Ģä¸ª": 2215,
      "å®ŀéĻħ": 2216,
      "æ¶īåıĬ": 2217,
      "çıŃ": 2218,
      "å¤§åĪ©": 2219,
      "æ·±åº¦åŃ¦ä¹ł": 2220,
      "çĥĪ": 2221,
      "åĪĽæĦı": 2222,
      "çļĦæĬĢæľ¯": 2223,
      "è¿Ļä¸Ģ": 2224,
      "åģ¥èº«": 2225,
      "èĪ¬": 2226,
      "èĪª": 2227,
      "æ¦Ĥæĭ¬": 2228,
      "åįĬ": 2229,
      "ç»ĥä¹ł": 2230,
      "åģļåĩº": 2231,
      "åŃ¦æł¡": 2232,
      "é¾Ļ": 2233,
      "çļĦä¸»é¢ĺ": 2234,
      "ä¸įåı¯": 2235,
      "æĿ¡ä»¶": 2236,
      "åıĺæļĸ": 2237,
      "äººåĳĺ": 2238,
      "åĲįåŃĹ": 2239,
      "é¼ĵ": 2240,
      "æıĲä¾ĽäºĨ": 2241,
      "èĲ¥åħ»": 2242,
      "ç»§ç»Ń": 2243,
      "çļĦæĹ¶éĹ´": 2244,
      "ç¼ĸç¨ĭ": 2245,
      "åĳĺå·¥": 2246,
      "åĲįè¯į": 2247,
      "çİĽ": 2248,
      "æĦıè¯Ĩ": 2249,
      "éĵ¾": 2250,
      "æķħ": 2251,
      "åı¯ä»¥åľ¨": 2252,
      "ç»ıå¸¸": 2253,
      "é«ĺçļĦ": 2254,
      "æĸ¹åĲĳ": 2255,
      "è´Ńçī©": 2256,
      "èĥĮæĻ¯": 2257,
      "èĩªæĪĳ": 2258,
      "åĨ¬": 2259,
      "éĢĤå½ĵ": 2260,
      "æĦıä¹ī": 2261,
      "éĵ¶": 2262,
      "æ°´å¹³": 2263,
      "å¤ļä¸ª": 2264,
      "èĮĥåĽ´": 2265,
      "ä»İæĸĩç«ł": 2266,
      "é¢Ŀ": 2267,
      "çļĦå¤©æ°Ķ": 2268,
      "æĭ¿": 2269,
      "å¤ļç§į": 2270,
      "è¯ĹæŃĮ": 2271,
      "åĽ¾åĥı": 2272,
      "åħ°": 2273,
      "ä¸¥éĩį": 2274,
      "å®ĺ": 2275,
      "åĳ¼åĲ¸": 2276,
      "çī©åĵģ": 2277,
      "ä¼´": 2278,
      "æĮīçħ§": 2279,
      "éŀĭ": 2280,
      "å¦Ĥä¸ĭ": 2281,
      "åºĶå¯¹": 2282,
      "è¿·": 2283,
      "çļĦå°ı": 2284,
      "å®ł": 2285,
      "èĲ¨": 2286,
      "å¸¸è§ģ": 2287,
      "å¤ıå¤©": 2288,
      "æ¸ħæĻ": 2289,
      "æ»¡è¶³": 2290,
      "ç¢³": 2291,
      "åĲĮæĹ¶ä¹Ł": 2292,
      "è½¯ä»¶": 2293,
      "å¹³è¡¡": 2294,
      "æ´ŀ": 2295,
      "å¯¹è¯ĿåĨħå®¹": 2296,
      "æľ«": 2297,
      "é¡¾": 2298,
      "çŁŃè¯Ń": 2299,
      "æĬ±": 2300,
      "åİ»äºĨ": 2301,
      "ä¼ļè®®": 2302,
      "ä¼°": 2303,
      "éª¤": 2304,
      "ç±»åĪ«": 2305,
      "æ£ĢæŁ¥": 2306,
      "çļĦçĪ": 2307,
      "åĢĭ": 2308,
      "åĭĩ": 2309,
      "ä¸ĭæĿ¥": 2310,
      "è¯·ä½ł": 2311,
      "15": 2312,
      "æĽ¾": 2313,
      "çĨŁ": 2314,
      "ç»ıåħ¸": 2315,
      "éĽª": 2316,
      "çºł": 2317,
      "æľ¬ä¹¦": 2318,
      "ç¹ģ": 2319,
      "èµı": 2320,
      "æĲľ": 2321,
      "å¼ķèµ·": 2322,
      "æıĲåĪ°äºĨ": 2323,
      "äºĭå®ŀ": 2324,
      "ç©ºæ°Ķ": 2325,
      "æľĹ": 2326,
      "çļĦæłĩ": 2327,
      "ä½įäºİ": 2328,
      "åŃ¤": 2329,
      "åģı": 2330,
      "åıĤä¸İ": 2331,
      "åĿı": 2332,
      "è¸": 2333,
      "æ´Ĺ": 2334,
      "è¯»èĢħ": 2335,
      "Ġåľ¨": 2336,
      "åħĥç´ł": 2337,
      "éŃĶ": 2338,
      "çļĦåħ³éĶ®": 2339,
      "æĬķèµĦ": 2340,
      "çĶµè§Ĩ": 2341,
      "æĦī": 2342,
      "å½ĵçĦ¶åı¯ä»¥": 2343,
      "ä»Ģä¹Īæĺ¯": 2344,
      "æ³³": 2345,
      "åķĨä¸ļ": 2346,
      "æĹ¥å¸¸": 2347,
      "ç¨³": 2348,
      "æĽ´å¥½çļĦ": 2349,
      "æĺ¨å¤©": 2350,
      "è°Ī": 2351,
      "åĪĨäº«": 2352,
      "ç§ĳåŃ¦å®¶": 2353,
      "éĿ¢ä¸´": 2354,
      "çľģ": 2355,
      "åĩºæĿ¥": 2356,
      "çļĦçłĶç©¶": 2357,
      "æŁĶ": 2358,
      "çķħ": 2359,
      "å§Ĩ": 2360,
      "åĢ¼å¾Ĺ": 2361,
      "çļĦæĸ¹å¼ı": 2362,
      "æ¸©åº¦": 2363,
      "çĶľ": 2364,
      "æ²ī": 2365,
      "è·Ŀ": 2366,
      "åģľ": 2367,
      "æİĴæĶ¾": 2368,
      "è´µ": 2369,
      "éĢĶ": 2370,
      "æ·»åĬł": 2371,
      "è¿ĩåİ»": 2372,
      "å®łçī©": 2373,
      "åĬĽéĩı": 2374,
      "éĢīé¡¹": 2375,
      "é¥°": 2376,
      "æľīçĿĢ": 2377,
      "æĪĳåĸľæ¬¢": 2378,
      "çĨĬ": 2379,
      "éħ±": 2380,
      "è¶ħè¿ĩ": 2381,
      "æķĪæŀľ": 2382,
      "èĤ¡": 2383,
      "è°ģ": 2384,
      "çİ°å®ŀ": 2385,
      "å²Ľ": 2386,
      "åı£æĦŁ": 2387,
      "å°Ĩä¼ļ": 2388,
      "éħ¸": 2389,
      "éĻĪ": 2390,
      "ç³»åĪĹ": 2391,
      "ï¼ģ<|": 2392,
      "åĽ½å®¶": 2393,
      "çļĦå·¥ä½ľ": 2394,
      "çļĦç¬": 2395,
      "ç¾İåĳ³": 2396,
      "ä¼½": 2397,
      "ï¼ĮâĢľ": 2398,
      "æŃ»": 2399,
      "å¹³åĿĩ": 2400,
      "å¥ĸ": 2401,
      "æĴŃ": 2402,
      "è¿ĽæŃ¥": 2403,
      "éľ²": 2404,
      "å¤«": 2405,
      "éĿł": 2406,
      "æ¬§": 2407,
      "ç³ķ": 2408,
      "æ£®": 2409,
      "å¿ĺ": 2410,
      "å¤§åŃ¦": 2411,
      "äººçī©": 2412,
      "æİĮ": 2413,
      "å®Ļ": 2414,
      "ç¥ŀç»ı": 2415,
      "çļĦæ®": 2416,
      "æľĢåĸľæ¬¢": 2417,
      "åĪĽå»º": 2418,
      "åħ¨çĲĥåıĺæļĸ": 2419,
      "éĢĤåºĶ": 2420,
      "èĨ": 2421,
      "çŃīé¢ĨåŁŁ": 2422,
      "éĴĪå¯¹": 2423,
      "æĺİå¤©": 2424,
      "ä»İè¿Ļç¯ĩæĸĩç«ł": 2425,
      "åŁ¹": 2426,
      "å¿Ĩ": 2427,
      "è´§": 2428,
      "12": 2429,
      "çļĦæĥħåĨµ": 2430,
      "äºĴèģĶç½ĳ": 2431,
      "æľīä¸Ģä¸ª": 2432,
      "ä¹īè¯į": 2433,
      "è°ĥæķ´": 2434,
      "å¥Ĺ": 2435,
      "å®ĩå®Ļ": 2436,
      "çļĦæľĢ": 2437,
      "åĨĻä½ľ": 2438,
      "ä¹³": 2439,
      "éĿ©": 2440,
      "çĽ¸åĲĮ": 2441,
      "åıĸå¾Ĺ": 2442,
      "çļĦåľ°æĸ¹": 2443,
      "åĲĪéĢĤ": 2444,
      "ľä¼½": 2445,
      "ä¿®æĶ¹": 2446,
      "è¿Ļä¸ªåı¥åŃĲ": 2447,
      "30": 2448,
      "çļĦæ´": 2449,
      "è§Ĩè§ī": 2450,
      "è®©æĪĳä»¬": 2451,
      "æ¸ħæĻ°": 2452,
      "æĪĳä»¬åºĶè¯¥": 2453,
      "çĪ±æĥħ": 2454,
      "åī©ä¸ĭ": 2455,
      "æ¥¼": 2456,
      "çº½": 2457,
      "å°ıæĹ¶": 2458,
      "æ³ķå¾ĭ": 2459,
      "éģĹ": 2460,
      "æĥħèĬĤ": 2461,
      "ä¸Ģé¦ĸ": 2462,
      "é«ĺæķĪ": 2463,
      "æ·±åħ¥": 2464,
      "æļĹ": 2465,
      "å½¢å®¹": 2466,
      "æı¡": 2467,
      "æī¿": 2468,
      "èĲ¥éĶĢ": 2469,
      "æ··": 2470,
      "åĽłä¸ºå®ĥ": 2471,
      "åĨĴ": 2472,
      "åĪĽä½ľ": 2473,
      "è·³": 2474,
      "åĽ°éļ¾": 2475,
      "æĹ¥æľ¬": 2476,
      "åĢĴ": 2477,
      "ä¸ªç³ĸæŀľ": 2478,
      "åľ°çĤ¹": 2479,
      "ç§Ģ": 2480,
      "èĹı": 2481,
      "æµ·æ´ĭ": 2482,
      "ä»ĭç»įäºĨ": 2483,
      "åºĬ": 2484,
      "æ±Ł": 2485,
      "çŃĸçķ¥": 2486,
      "çļĦæ®µ": 2487,
      "æ½ľ": 2488,
      "éļĲç§ģ": 2489,
      "è¶³å¤Ł": 2490,
      "è¯įæ±ĩ": 2491,
      "çĽ¸ä¼¼": 2492,
      "æĹ¶å°ļ": 2493,
      "æ±ī": 2494,
      "æĹ¥æľŁ": 2495,
      "ç£": 2496,
      "å·§åħĭ": 2497,
      "éģĵå¾·": 2498,
      "å¡ĳæĸĻ": 2499,
      "èĭ±è¯Ń": 2500,
      "çļĦå¤§": 2501,
      "çļĦè¯Ŀ": 2502,
      "çļĦçĥ": 2503,
      "ç½ĳç«Ļ": 2504,
      "æ±¤": 2505,
      "æ£Ĵ": 2506,
      "å·¦": 2507,
      "ä¼ĺåĮĸ": 2508,
      "100": 2509,
      "çļĦæ°Ķ": 2510,
      "çļĦæ®µèĲ½": 2511,
      "å¿«ä¹Ĳ": 2512,
      "çļĦç¤¾": 2513,
      "ç»ĨèĬĤ": 2514,
      "æĵį": 2515,
      "ä¾ĭåŃĲ": 2516,
      "å¹¶åľ¨": 2517,
      "éĨĴ": 2518,
      "æ¸¸æ³³": 2519,
      "å®Ī": 2520,
      "ç»¿èī²": 2521,
      "çĦ¦èĻĳ": 2522,
      "æļ´": 2523,
      "èį¯çī©": 2524,
      "å®ĥä»¬çļĦ": 2525,
      "åĪĨç±»ä¸º": 2526,
      "éļľ": 2527,
      "çĻ»": 2528,
      "è´£ä»»": 2529,
      "è¢ĭ": 2530,
      "æľĿ": 2531,
      "æĺ¯çļĦ": 2532,
      "æıĲåĩº": 2533,
      "åŃ£èĬĤ": 2534,
      "æł¹æį®ä»¥ä¸ĭ": 2535,
      "ä¿Ŀåģ¥": 2536,
      "æĹłè®º": 2537,
      "æ¶Īè´¹": 2538,
      "é¡¿": 2539,
      "ä»įçĦ¶": 2540,
      "çļĦæĹ¶åĢĻ": 2541,
      "ä¸Ģç¯ĩæĸĩç«ł": 2542,
      "æĬ¥åĳĬ": 2543,
      "æĶ¿çŃĸ": 2544,
      "å¹¿åĳĬ": 2545,
      "çļĦå¥½": 2546,
      "çģ¯": 2547,
      "ä»¥ä¸ĭæĺ¯ä¸Ģ": 2548,
      "å¹³åı°": 2549,
      "åĲĪçĲĨ": 2550,
      "åı³": 2551,
      "çļĦéĩįè¦ģæĢ§": 2552,
      "ç»ŃåĨĻ": 2553,
      "çļĦé£Łçī©": 2554,
      "å¤ļæł·": 2555,
      "æ¨¡å¼ı": 2556,
      "å°ģ": 2557,
      "äººå·¥æĻºèĥ½çļĦ": 2558,
      "å·§åħĭåĬĽ": 2559,
      "ç¥ŀç§ĺ": 2560,
      "åĹ": 2561,
      "ŁéĢļ": 2562,
      "è¡Ĺ": 2563,
      "å¢ŀéķ¿": 2564,
      "åľ¨å®¶": 2565,
      "..": 2566,
      "çĬ¯": 2567,
      "ç®±": 2568,
      "æµĵ": 2569,
      "åıįåºĶ": 2570,
      "ä¸įè¿ĩ": 2571,
      "çĹĽ": 2572,
      "ä¸Ģæł·": 2573,
      "åľĨ": 2574,
      "å°ıæĺİæľī": 2575,
      "èĢĲ": 2576,
      "å¹¸ç¦ı": 2577,
      "æĮ¥": 2578,
      "æĬĺ": 2579,
      "å¸¦æĿ¥äºĨ": 2580,
      "æĭ¼": 2581,
      "åĺ": 2582,
      "åĮĸçļĦ": 2583,
      "ç¬¦åĲĪ": 2584,
      "èĦĤ": 2585,
      "æĶ¹è¿Ľ": 2586,
      "çĳľä¼½": 2587,
      "å¡Ķ": 2588,
      "æĲľç´¢": 2589,
      "çĬ¶æĢģ": 2590,
      "åĨ²": 2591,
      "åı£åĳ³": 2592,
      "åĪ¶éĢł": 2593,
      "çļĦæµ·": 2594,
      "çĶµèĦĳ": 2595,
      "å¿ħè¦ģ": 2596,
      "ç¼ĵè§£": 2597,
      "50": 2598,
      "ä¹İ": 2599,
      "æķĳ": 2600,
      "æĦŁåıĹ": 2601,
      "æĬĹ": 2602,
      "çº½çº¦": 2603,
      "çī©çĲĨ": 2604,
      "Ġ=": 2605,
      "è£¤": 2606,
      "çº¸": 2607,
      "æĺİç¡®": 2608,
      "äººåĲį": 2609,
      "è¯įè¯Ń": 2610,
      "çļĦæĳĺè¦ģ": 2611,
      "åħ¶æ¬¡": 2612,
      "ä¸Ĭåįĩ": 2613,
      "èĦļ": 2614,
      "é¼ĵåĬ±": 2615,
      "æŃ£ç¡®çļĦ": 2616,
      "ç«ŀäºī": 2617,
      "ç«¥": 2618,
      "åį³åı¯": 2619,
      "æĢ»æĺ¯": 2620,
      "éĹ²": 2621,
      "çļĦä¸»": 2622,
      "åľ°æĸ¹": 2623,
      "åĬ¨ä½ľ": 2624,
      "æĥħç»ª": 2625,
      "æł¸": 2626,
      "å·¥ç¨ĭ": 2627,
      "åĪĨç»Ļ": 2628,
      "ç±į": 2629,
      "æıĲä¾Ľä¸Ģä¸ª": 2630,
      "æ½®": 2631,
      "éĢĲæ¸Ĳ": 2632,
      "çİ°è±¡": 2633,
      "åıĹæ¬¢è¿İ": 2634,
      "åĽ½éĻħ": 2635,
      "è¿½æ±Ĥ": 2636,
      "éĻĲåĪ¶": 2637,
      "é»İ": 2638,
      "å®¶å±ħ": 2639,
      "æŁĲäºĽ": 2640,
      "ä¹ĭåīį": 2641,
      "åĩıè½»": 2642,
      "è¾Ĩ": 2643,
      "æ¬£": 2644,
      "è´¡": 2645,
      "æ°¸": 2646,
      "ä¸ĸçºª": 2647,
      "çħ®": 2648,
      "æµĭè¯ķ": 2649,
      "çĽĲ": 2650,
      "åĳ³éģĵ": 2651,
      "è·Ŀç¦»": 2652,
      "æĻ¯çĤ¹": 2653,
      "æıĲåįĩ": 2654,
      "ä¸Ģåı¥è¯Ŀ": 2655,
      "èĿ": 2656,
      "18": 2657,
      "å¤ªç©º": 2658,
      "èĤ¤": 2659,
      "åºĶçĶ¨äºİ": 2660,
      "ä¸Ŀ": 2661,
      "çĶŁæĢģç³»ç»Ł": 2662,
      "æĲŃéħį": 2663,
      "è°·": 2664,
      "ä¸ĸçķĮä¸ĬæľĢ": 2665,
      "±ä¹Ĳ": 2666,
      "çĤº": 2667,
      "åħ¬åħ±": 2668,
      "æİ¨åĬ¨": 2669,
      "ä¸ĭæĸĩ": 2670,
      "è®©ä½ł": 2671,
      "ä»¿": 2672,
      "éĶħ": 2673,
      "å®ŀéªĮ": 2674,
      "åº¦åĴĮ": 2675,
      "éĸ": 2676,
      "åĵªä¸ª": 2677,
      "ç»¼": 2678,
      "ç¥Ŀ": 2679,
      "æĻļä¸Ĭ": 2680,
      "ä¸Ģå®¶": 2681,
      "ä¸ªæĢ§": 2682,
      "ä½¿åħ¶æĽ´åĬł": 2683,
      "çº¢èī²": 2684,
      "ç©ºéĹ´": 2685,
      "å¼łä¸ī": 2686,
      "çĶ¨æĿ¥": 2687,
      "è§£åĨ³æĸ¹æ¡Ī": 2688,
      "åĢĳ": 2689,
      "æ±ł": 2690,
      "æ©ĻåŃĲ": 2691,
      "å¤ıåŃ£": 2692,
      "æĪĲéķ¿": 2693,
      "çļĦåĨħå®¹": 2694,
      "å¸ģ": 2695,
      "æĦıæĢĿ": 2696,
      "æĿĳ": 2697,
      "è´¡çĮ®": 2698,
      "æĺ¯çĶ±": 2699,
      "éĵħ": 2700,
      "æ¹ĸ": 2701,
      "çļĦæ³": 2702,
      "çĽĺ": 2703,
      "å±ķç¤º": 2704,
      "çīĽå¥¶": 2705,
      "ä¹ĺ": 2706,
      "è¯Ħä¼°": 2707,
      "èµŀ": 2708,
      "åĲ«ä¹ī": 2709,
      "ä¸¤ä¸ªåı¥åŃĲ": 2710,
      "æ°Ķä½ĵ": 2711,
      "å¿Ļ": 2712,
      "è²": 2713,
      "æľºæŀĦ": 2714,
      "æŃ§": 2715,
      "æĹ©ä¸Ĭ": 2716,
      "__": 2717,
      "æľªæĿ¥çļĦ": 2718,
      "åİŁå§ĭ": 2719,
      "åĬ³": 2720,
      "å¥³æĢ§": 2721,
      "çĬ¶åĨµ": 2722,
      "å®«": 2723,
      "å®Įåħ¨": 2724,
      "æ±ģ": 2725,
      "åĴĮåħ¶ä»ĸ": 2726,
      "çļĦåİĨåı²": 2727,
      "æī©": 2728,
      "ãĢĤâĢĿ<|": 2729,
      "ä¸ĢèĪ¬": 2730,
      "åİļ": 2731,
      "ç»Ļåĩºä¸Ģä¸ª": 2732,
      "è°ĥæŁ¥": 2733,
      "åľ¨çº¿": 2734,
      "èİ·åıĸ": 2735,
      "æķ£æŃ¥": 2736,
      "å¥ĭ": 2737,
      "å°Ĭéĩį": 2738,
      "æĿ¥èĩª": 2739,
      "çĶŁæ´»ä¸Ń": 2740,
      "æĪ·å¤ĸ": 2741,
      "åĤ¨": 2742,
      "è®°å½ķ": 2743,
      "è¿Ļå®¶": 2744,
      "ç¯®": 2745,
      "çĽ¸ä¿¡": 2746,
      "åĮ»çĸĹä¿Ŀåģ¥": 2747,
      "åĲ¯": 2748,
      "ä¸ľè¥¿": 2749,
      "æ»ĳ": 2750,
      "çĽ´æİ¥": 2751,
      "æĪĲæľ¬": 2752,
      "ä¹Łä¼ļ": 2753,
      "åĪĹè¡¨": 2754,
      "åı¯èĥ½æĺ¯": 2755,
      "æĬĢæľ¯çļĦ": 2756,
      "æĦıåĳ³": 2757,
      "æĺł": 2758,
      "å°į": 2759,
      "åħŃ": 2760,
      "è¾¾åĪ°": 2761,
      "çļĦæĢĿ": 2762,
      "åĽŀçŃĶéĹ®é¢ĺ": 2763,
      "ç½ª": 2764,
      "å¥¹çļĦ": 2765,
      "ä¸įçŁ¥éģĵ": 2766,
      "çłĶ": 2767,
      "è®ºæĸĩ": 2768,
      "å¾Ħ": 2769,
      "åºĶçĶ¨ç¨ĭåºı": 2770,
      "æĦıå¤§åĪ©": 2771,
      "ä¸Ĭæµ·": 2772,
      "æĪĳè®¤ä¸º": 2773,
      "å¦Ī": 2774,
      "éĵħç¬Ķ": 2775,
      "åĨł": 2776,
      "éĤ£éĩĮ": 2777,
      "æĸ¹ä¾¿": 2778,
      "çİī": 2779,
      "åĪĨåĪ«": 2780,
      "æĪĳå¾Ī": 2781,
      "è¡¨è¾¾äºĨ": 2782,
      "ç¼©": 2783,
      "éĢĻ": 2784,
      "çĥ§": 2785,
      "åŃ¦ä¹łåĴĮ": 2786,
      "ç»Ļä½ł": 2787,
      "æĿ°": 2788,
      "æŃ¥éª¤": 2789,
      "æįŁ": 2790,
      "èĳĹåĲįçļĦ": 2791,
      "å·´é»İ": 2792,
      "æ·±åĪ»": 2793,
      "æĢ¥": 2794,
      "éģį": 2795,
      "ç¨³å®ļ": 2796,
      "æ´¾": 2797,
      "éº¦": 2798,
      "èĽĭçĻ½": 2799,
      "è¶³çĲĥ": 2800,
      "åĽº": 2801,
      "èĩ³å°ĳ": 2802,
      "éĩıåŃĲ": 2803,
      "ä¸Ģå¤©": 2804,
      "åĩī": 2805,
      "æĶ¹åĨĻ": 2806,
      "æŀ¶": 2807,
      "åı¯ä»¥ä½¿çĶ¨": 2808,
      "è¿Ļç¯ĩ": 2809,
      "æĸĹ": 2810,
      "çĩĥ": 2811,
      "æĸ°éĹ»æĬ¥éģĵ": 2812,
      "æĦıåĳ³çĿĢ": 2813,
      "æĽ¿æį¢": 2814,
      "åĳĪ": 2815,
      "çİ¯å¢ĥä¿ĿæĬ¤": 2816,
      "é¥¼": 2817,
      "åĪº": 2818,
      "å®½": 2819,
      "çĤĴ": 2820,
      "åıĳå¸ĥ": 2821,
      "åĮĸåŃ¦": 2822,
      "éĻĦ": 2823,
      "æŃī": 2824,
      "è¡¨éĿ¢": 2825,
      "ä½Ľ": 2826,
      "åĿļæĮģ": 2827,
      "å½ĵåīį": 2828,
      "åı¥åŃĲä¸Ń": 2829,
      "å¤©ç©º": 2830,
      "ç±»ä¼¼": 2831,
      "äººçĶŁ": 2832,
      "çļĦäºĭæĥħ": 2833,
      "éľĩ": 2834,
      "åģ¥åº·çļĦ": 2835,
      "æ°Ķæ¸©": 2836,
      "ä¸Ģç»Ħ": 2837,
      "çļĦä¸Ģä¸ª": 2838,
      "æģ¶": 2839,
      "æĿŁ": 2840,
      "å¹¶ä¸į": 2841,
      "èĩªè¡Į": 2842,
      "æĶ»": 2843,
      "ä»¥ç¡®ä¿Ŀ": 2844,
      "åºŁ": 2845,
      "åĶ±": 2846,
      "éĽħ": 2847,
      "ç»©": 2848,
      "on": 2849,
      "å¯Ĵ": 2850,
      "æĤ¦": 2851,
      "ä¿Ŀè¯ģ": 2852,
      "çŃ¾": 2853,
      "çļĦæ´»": 2854,
      "è®¢": 2855,
      "æ¯ıä¸ªæľĭåıĭ": 2856,
      "åĪĨåĪ°": 2857,
      "å°¤": 2858,
      "çĽ¸åħ³çļĦ": 2859,
      "å¹ħ": 2860,
      "æİ¨å¹¿": 2861,
      "çļĦç³": 2862,
      "æ¶¦": 2863,
      "è¡£æľį": 2864,
      "åºĵ": 2865,
      "çīĻ": 2866,
      "ç»ĺ": 2867,
      "éľĢè¦ģæ³¨æĦı": 2868,
      "¡èĲ": 2869,
      "çľŁæŃ£": 2870,
      "åĬ¨è¯į": 2871,
      "æī§è¡Į": 2872,
      "ä¼ĺåĬ¿": 2873,
      "æİī": 2874,
      "æģĲ": 2875,
      "æĢĿæĥ³": 2876,
      "åı¯ä»¥è¢«": 2877,
      "èĥ½éĩı": 2878,
      "èĤĮ": 2879,
      "èĭ¦": 2880,
      "çĽĽ": 2881,
      "æİ¥åıĹ": 2882,
      "ç§ĳå¹»": 2883,
      "å®ļä¹ī": 2884,
      "æ¤Ĵ": 2885,
      "çļĦæĸ°": 2886,
      "æ¨¡æĭŁ": 2887,
      "çıį": 2888,
      "ä¸Ģä¸ªäºº": 2889,
      "åı¯æĮģç»Ńåıĳå±ķ": 2890,
      "å¾ª": 2891,
      "éªĳ": 2892,
      "å®īæİĴ": 2893,
      "èĢĮä¸įæĺ¯": 2894,
      "å¼ĥ": 2895,
      "ç»ĵåĲĪ": 2896,
      "çļĦæĻº": 2897,
      "çļĦçĭ": 2898,
      "æ£®æŀĹ": 2899,
      "æĺİäºĨ": 2900,
      "åıĳæĮ¥": 2901,
      "åĴĮæĸĩåĮĸ": 2902,
      "è½»æĿ¾": 2903,
      "çļĦçĪ±": 2904,
      "ä½łéľĢè¦ģ": 2905,
      "ä¸»ä¹ī": 2906,
      "ä¸ĭåĪĹ": 2907,
      "ä½łå¥½": 2908,
      "åĩºèī²": 2909,
      "çļĦæıı": 2910,
      "è¯·åĳĬè¯īæĪĳ": 2911,
      "çĽ¸äºĴ": 2912,
      "çļĦæĦıæĢĿ": 2913,
      "ä¸ŃæľĢ": 2914,
      "çĿ¡çľł": 2915,
      "å®¶äºº": 2916,
      "æıĲä¾Ľä¸ĢäºĽ": 2917,
      "èĤ¥": 2918,
      "åħ±æľī": 2919,
      "ä¼ĺç§Ģ": 2920,
      "äºĨä¸ĢäºĽ": 2921,
      "å®ļæľŁ": 2922,
      "èĭı": 2923,
      "å©ļ": 2924,
      "åĪĹåĩº": 2925,
      "äººç±»çļĦ": 2926,
      "è©": 2927,
      "åľ¨ä¸Ģèµ·": 2928,
      "è·µ": 2929,
      "ç»Ļå®ļä¸Ģä¸ª": 2930,
      "å¨±ä¹Ĳ": 2931,
      "å°¾": 2932,
      "æĵįä½ľ": 2933,
      "çļĦçģ": 2934,
      "è§Ĥä¼Ĺ": 2935,
      "æ³¨éĩį": 2936,
      "çĥŁ": 2937,
      "é«ĺåħ´": 2938,
      "æµģè¡Į": 2939,
      "çĽ®çļĦåľ°": 2940,
      "æĺ¯ä¸Ģéĥ¨": 2941,
      "çµ": 2942,
      "å¤§å®¶": 2943,
      "çĶŁåŃĺ": 2944,
      "ä¹Łæľī": 2945,
      "èĽĭç³ķ": 2946,
      "æīĢæľīçļĦ": 2947,
      "ç¿°": 2948,
      "çĽ¸å¯¹": 2949,
      "æ¹¿": 2950,
      "æĪĳåľ¨": 2951,
      "èī¯å¥½çļĦ": 2952,
      "çļĦæ¦Ĥ": 2953,
      "åĨĻä¸Ģç¯ĩ": 2954,
      "éĿ¢å¯¹": 2955,
      "ä¹¦ç±į": 2956,
      "é¥®æĸĻ": 2957,
      "èĥģ": 2958,
      "éĢ»": 2959,
      "æĹ¶ä»£": 2960,
      "æĢ»ä¹ĭ": 2961,
      "åĿ¦": 2962,
      "å®ľ": 2963,
      "ç»ĵè®º": 2964,
      "åĮ»çĸĹé¢ĨåŁŁ": 2965,
      "è·ĳæŃ¥": 2966,
      "è®¿": 2967,
      "èĪ¹": 2968,
      "é¾Ħ": 2969,
      "ç¨ĭåº¦": 2970,
      "ä¾Ĩ": 2971,
      "åı¤è¯Ĺ": 2972,
      "éĢĤéĩı": 2973,
      "æľµ": 2974,
      "çľŁçļĦ": 2975,
      "åıªæĺ¯": 2976,
      "è¯ļ": 2977,
      "åŃ¤çĭ¬": 2978,
      "é¢Ħéĺ²": 2979,
      "çļĦæĢ»": 2980,
      "åħ¶ä¸ŃçļĦ": 2981,
      "æİ¨çĲĨ": 2982,
      "æİĮæı¡": 2983,
      "æĬ½åıĸ": 2984,
      "éĤ£äºĽ": 2985,
      "çĶļ": 2986,
      "åĵº": 2987,
      "è¿Ľåħ¥": 2988,
      "å¨ģèĥģ": 2989,
      "æ³¡": 2990,
      "å¥ı": 2991,
      "å¯»æ±Ĥ": 2992,
      "ä¸ļåĬ¡": 2993,
      "è°±": 2994,
      "åĵ¥": 2995,
      "åīįå¾Ģ": 2996,
      "æľīåĵªäºĽ": 2997,
      "æ¼Ķåĳĺ": 2998,
      "æµģçķħ": 2999,
      "è¿Ľè¡ĮåĪĨç±»": 3000,
      "202": 3001,
      "æĮĩåĩº": 3002,
      "è§ĦåĪĴ": 3003,
      "å®ŀè·µ": 3004,
      "çĭ¬çī¹çļĦ": 3005,
      "åĳ¨åĽ´": 3006,
      "æĪĲè¯Ń": 3007,
      "å¹´çļĦ": 3008,
      "æĸĩæľ¬åĨħå®¹": 3009,
      "è¾£": 3010,
      "ç»ıè¿ĩ": 3011,
      "æ¸©æļĸ": 3012,
      "ä½ĵèĤ²": 3013,
      "çıł": 3014,
      "éĩįçĤ¹": 3015,
      "æŃ§è§Ĩ": 3016,
      "çİĽä¸½": 3017,
      "å£°éŁ³": 3018,
      "æ¦Ĥå¿µ": 3019,
      "æ°§åĮĸ": 3020,
      "ä»ĸåľ¨": 3021,
      "éĽ¶": 3022,
      "ä¸Ńæĸĩ": 3023,
      "åŃ¸": 3024,
      "å¼ĢæĶ¾": 3025,
      "åįģåĪĨ": 3026,
      "å¾Ĺåĩº": 3027,
      "éĢ»è¾ĳ": 3028,
      "ç²¾ç¥ŀ": 3029,
      "èķī": 3030,
      "æĹ¨åľ¨": 3031,
      "æ¶²": 3032,
      "åĵªéĩĮ": 3033,
      "çļĦçŁŃ": 3034,
      "çº¦ç¿°": 3035,
      "æ³°": 3036,
      "çī©ä½ĵ": 3037,
      "çĹħæ¯Ĵ": 3038,
      "é¸¡èĽĭ": 3039,
      "è¿ŀæİ¥": 3040,
      "å¦Ļ": 3041,
      "å¤ªéĺ³ç³»": 3042,
      "èĩªåĬ¨åĮĸ": 3043,
      "è§ĦåĪĻ": 3044,
      "ä½¿åħ¶æĽ´": 3045,
      "æľĢä½³": 3046,
      "èĻļæĭŁ": 3047,
      "éĥ½ä¼ļ": 3048,
      "çļĦæĥ³": 3049,
      "éķ¿åº¦": 3050,
      "æĢĢ": 3051,
      "ä¸Ģæ¬¾": 3052,
      "èĩªåĬ¨é©¾é©¶": 3053,
      "çļĦæĻ¯": 3054,
      "æıĲåıĸåĩº": 3055,
      "è´Ŀ": 3056,
      "èº«ä½ĵåģ¥åº·": 3057,
      "è½®": 3058,
      "ä¸ĬéĿ¢": 3059,
      "çĲĨè®º": 3060,
      "æķ¬": 3061,
      "èľľ": 3062,
      "åĩĢ": 3063,
      "éģµ": 3064,
      "åĢ¾": 3065,
      "èĵĿèī²": 3066,
      "å´": 3067,
      "é¦Ļèķī": 3068,
      "åľ¨ä¸Ģä¸ª": 3069,
      "çļĦé£İéĻ©": 3070,
      "ä¹¡": 3071,
      "äº¡": 3072,
      "200": 3073,
      "æµ·æ»©": 3074,
      "æĸ°é²ľ": 3075,
      "åħ³éĶ®ä¿¡æģ¯": 3076,
      "æĪĳéľĢè¦ģ": 3077,
      "åĲĦä¸ª": 3078,
      "æĪĲä¸ºäºĨ": 3079,
      "èĭ±åĽ½": 3080,
      "æľīæīĢ": 3081,
      "è¡¥": 3082,
      "ç¾İå¥½çļĦ": 3083,
      "èĦ±": 3084,
      "æ··åĲĪ": 3085,
      "åĵºä¹³": 3086,
      "ä¼ĺçĤ¹": 3087,
      "çĤİ": 3088,
      "åĪĨä¸º": 3089,
      "ï¼īï¼Į": 3090,
      "æĺ¾ç¤º": 3091,
      "è¿Ļæ¬¾": 3092,
      "å¥³åŃ©": 3093,
      "èĤ¯": 3094,
      "åĨĻä¸Ģä¸ª": 3095,
      "å°Ĩä»¥ä¸ĭ": 3096,
      "æĬ±æŃī": 3097,
      "çĶ³": 3098,
      "å·¥ä¸ļ": 3099,
      "ä¸»äºº": 3100,
      "ç§¯æŀģçļĦ": 3101,
      "è´¥": 3102,
      "çŁŃæĸĩ": 3103,
      "éĹŃ": 3104,
      "éº¼": 3105,
      "æĺ¯ä¸ŃåĽ½": 3106,
      "åį·": 3107,
      "èªī": 3108,
      "é«ĺåº¦": 3109,
      "çļĦæ´»åĬ¨": 3110,
      "å°ıåŃ¦": 3111,
      "çĬ¬": 3112,
      "æ²ŁéĢļ": 3113,
      "æĸĩåĮĸåĴĮ": 3114,
      "æĩĤ": 3115,
      "ãĢĭãĢģ": 3116,
      "ç¾İä¸½çļĦ": 3117,
      "æ¡Į": 3118,
      "è¿¹": 3119,
      "è¯·ç»ĻæĪĳ": 3120,
      "èĩªè¡Įè½¦": 3121,
      "æĺ¯ä¸Ģä½į": 3122,
      "åħ«": 3123,
      "æł¹æį®æıĲä¾Ľ": 3124,
      "åľ£": 3125,
      "æ¾": 3126,
      "XX": 3127,
      "éĿ¢åĮħ": 3128,
      "å«": 3129,
      "ç®Ģè¦ģ": 3130,
      "ĠâĢľ": 3131,
      "è¯ŃéŁ³è¯ĨåĪ«": 3132,
      "éĥģ": 3133,
      "çļĦæııè¿°": 3134,
      "éķĩ": 3135,
      "ç¥ŀç»ıç½ĳç»ľ": 3136,
      "çļĦæīĭ": 3137,
      "æĭį": 3138,
      "éĻĪè¿°": 3139,
      "ï¼īãĢĤ": 3140,
      "ä¹ĭåĲİ": 3141,
      "æłĩåĩĨ": 3142,
      "å¹³çŃī": 3143,
      "æĹ¶æľŁ": 3144,
      "çļĦçŃĶæ¡Ī": 3145,
      "èİĵ": 3146,
      "ä¹ı": 3147,
      "è§¦": 3148,
      "åįļçī©": 3149,
      "èĭĹ": 3150,
      "åģ¥åº·é¥®é£Ł": 3151,
      "å»¶": 3152,
      "éŃĶæ³ķ": 3153,
      "åºĨ": 3154,
      "ĠĠ": 3155,
      "æĹ¶éĹ´åĴĮ": 3156,
      "ç¤¾åĮº": 3157,
      "çļĦæĭ": 3158,
      "æŁĲä¸ª": 3159,
      "ç¬¬ä¸Ģ": 3160,
      "å±ķçİ°": 3161,
      "åĳ¨æľ«": 3162,
      "æķ°æį®éĽĨ": 3163,
      "ä»£çłģ": 3164,
      "è½¬æį¢": 3165,
      "è¯¾ç¨ĭ": 3166,
      "èĢ³": 3167,
      "æī¾åĩº": 3168,
      "å·¦åı³": 3169,
      "éª¨": 3170,
      "é¢Ĩå¯¼": 3171,
      "å¾ĹåĪ°äºĨ": 3172,
      "åīĤ": 3173,
      "ç§°ä¸º": 3174,
      "è³": 3175,
      "åı¤ä»£": 3176,
      "ç®ĢåįķçļĦ": 3177,
      "åĬĽçļĦ": 3178,
      "çļĦæĢ§": 3179,
      "æľŁéĹ´": 3180,
      "å®Ĺ": 3181,
      "æ¬£èµı": 3182,
      "çļĦæİ¨": 3183,
      "åĨįçĶŁ": 3184,
      "æĸĩæľ¬ä¸ŃçļĦ": 3185,
      "åĨ¥": 3186,
      "åĪĨéħį": 3187,
      "ä¼ĳæģ¯": 3188,
      "æĶ¾åľ¨": 3189,
      "æĦŁåıĹåĪ°": 3190,
      "è¯Ńè¨Ģæ¨¡åŀĭ": 3191,
      "çļĦæķĪ": 3192,
      "çĴ": 3193,
      "çļĦæĮĳæĪĺ": 3194,
      "è®²è¿°äºĨ": 3195,
      "æĹ§": 3196,
      "äº¿": 3197,
      "æ¸ħæ´ģ": 3198,
      "åĮºåĿĹ": 3199,
      "æħ§": 3200,
      "åĵģè´¨": 3201,
      "å£®": 3202,
      "çĪ±å¥½": 3203,
      "çĶļèĩ³": 3204,
      "ä»Ģéº¼": 3205,
      "çģ¾å®³": 3206,
      "å®ĥåı¯ä»¥": 3207,
      "å®ģ": 3208,
      "è½½": 3209,
      "æĺŁæľŁ": 3210,
      "èĽĭçĻ½è´¨": 3211,
      "åĨĴéĻ©": 3212,
      "èĥ½åĲ¦": 3213,
      "ä¸ĥ": 3214,
      "ä¸ºæĪĳ": 3215,
      "ªæĺİ": 3216,
      "åłĤ": 3217,
      "ĠæĪĳ": 3218,
      "å¯¿": 3219,
      "è¡¨æ¼Ķ": 3220,
      "å½Ĵç±»": 3221,
      "åıĬæĹ¶": 3222,
      "æĪ¿éĹ´": 3223,
      "åĮĢ": 3224,
      "å¤§æ°Ķ": 3225,
      "è¿Ļæľ¬ä¹¦": 3226,
      "çĻĮ": 3227,
      "çĭ¬ç«ĭ": 3228,
      "æĹĭ": 3229,
      "ãĢĭãĢģãĢĬ": 3230,
      "çļĦåİŁåĽł": 3231,
      "å°¤åħ¶": 3232,
      "é¼ł": 3233,
      "âĢĶâĢĶ": 3234,
      "çĶŁæ´»æĸ¹å¼ı": 3235,
      "ç§įæĹı": 3236,
      "æĢĿç»´": 3237,
      "æĿĢ": 3238,
      "æĥħåĨµä¸ĭ": 3239,
      "çľĭçĶµå½±": 3240,
      "èĤª": 3241,
      "èĦĤèĤª": 3242,
      "èĮĦ": 3243,
      "é»ĺ": 3244,
      "åħ·ä½ĵçļĦ": 3245,
      "å¼ºè°ĥäºĨ": 3246,
      "çĽ¸åºĶ": 3247,
      "æ®Ĭ": 3248,
      "«èĲ¨": 3249,
      "é¢Ĺç³ĸæŀľ": 3250,
      "åĵºä¹³åĬ¨çī©": 3251,
      "éĻ¤äºĨ": 3252,
      "æľĢå¥½çļĦ": 3253,
      "å®ĥæĺ¯": 3254,
      "å®¾": 3255,
      "å¹¶æıĲä¾Ľ": 3256,
      "æķı": 3257,
      "å½¢å®¹è¯į": 3258,
      "è¿ª": 3259,
      "è®¤è¯Ĩ": 3260,
      "è¯º": 3261,
      "é»ĳæ´ŀ": 3262,
      "å®¤æ°Ķä½ĵ": 3263,
      "çĶŁæĪĲåķĨåĵģ": 3264,
      "æ¦": 3265,
      "åľ¨æľªæĿ¥": 3266,
      "äºĭçī©": 3267,
      "æĭĮ": 3268,
      "çļĦèĥ½åĬĽ": 3269,
      "èĳ±": 3270,
      "èļ": 3271,
      "ç§įç±»": 3272,
      "æĺĵäºİ": 3273,
      "åĢŁ": 3274,
      "å¼ºçĥĪ": 3275,
      "ä¼ĳéĹ²": 3276,
      "äºĴåĬ¨": 3277,
      "æ¶Īè´¹èĢħ": 3278,
      "å½¼": 3279,
      "æ»¡æĦı": 3280,
      "äºĨä¸Ģç§į": 3281,
      "æľĢæĸ°": 3282,
      "å¼¹": 3283,
      "çļĦç©": 3284,
      "èĦı": 3285,
      "éĢĢ": 3286,
      "æİ¢è®¨äºĨ": 3287,
      "ä¹Ŀ": 3288,
      "è°ĵ": 3289,
      "çļĦä¸»è¦ģè§ĤçĤ¹": 3290,
      "è¹": 3291,
      "æľīè¶£çļĦ": 3292,
      "æ¼Ĥ": 3293,
      "äº¤æĺĵ": 3294,
      "æľĢå¥½": 3295,
      "æĹ¢": 3296,
      "å¸Ŀ": 3297,
      "åįļçī©é¦Ĩ": 3298,
      "æ¶Īæŀģ": 3299,
      "æľĥ": 3300,
      "åĴ¨": 3301,
      "å·Ŀ": 3302,
      "è¿ĺéľĢè¦ģ": 3303,
      "æ¯ıä¸ªäººéĥ½": 3304,
      "èĢĹ": 3305,
      "å¹´é¾Ħ": 3306,
      "ç¶": 3307,
      "å®Įæķ´": 3308,
      "çĸ«æĥħ": 3309,
      "æİ¥ä¸ĭæĿ¥": 3310,
      "éĢĴ": 3311,
      "Ġæııè¿°": 3312,
      "è´ŁéĿ¢å½±åĵį": 3313,
      "å¤ļçļĦ": 3314,
      "çļĦç³ĸ": 3315,
      "è¾ħ": 3316,
      "è¿ħ": 3317,
      "å®£ä¼ł": 3318,
      "çĶŁéķ¿": 3319,
      "è§Ĩé¢ĳ": 3320,
      "è®¨è®ºäºĨ": 3321,
      "é¡¶": 3322,
      "çĪ¶": 3323,
      "æĪĳæĹłæ³ķ": 3324,
      "èº«å¿ĥ": 3325,
      "çªĹ": 3326,
      "ä¹Łå¾Ī": 3327,
      "çļĦç¬¬": 3328,
      "æĢ§èĥ½": 3329,
      "æ³ķåĽ½": 3330,
      "çľĭèµ·æĿ¥": 3331,
      "åħħåĪĨ": 3332,
      "çĵľ": 3333,
      "èģĬå¤©": 3334,
      "è¯Ńæ³ķéĶĻè¯¯": 3335,
      "åĴ¨è¯¢": 3336,
      "ç»ķ": 3337,
      "æķ¢": 3338,
      "è§Ī": 3339,
      "ç¿»è¯ĳæĪĲ": 3340,
      "æĺŁçĲĥ": 3341,
      "äºĨè®¸å¤ļ": 3342,
      "çļĦéŁ³ä¹Ĳ": 3343,
      "éķ¿æľŁ": 3344,
      "ä½łä»¬": 3345,
      "çļĦçİ¯å¢ĥ": 3346,
      "ä¸Ĭä¸ĭæĸĩ": 3347,
      "åĲ¬èµ·æĿ¥": 3348,
      "ä¸Ģæľ¬": 3349,
      "èģªæĺİ": 3350,
      "æĢ»ç»Ł": 3351,
      "æĥł": 3352,
      "çĶŁæĹ¥": 3353,
      "éĺ¶": 3354,
      "å¿ĥæĥħ": 3355,
      "çļĦçĹ": 3356,
      "åĵ²": 3357,
      "è§Ĥå¯Ł": 3358,
      "çļĦç²": 3359,
      "èī²å½©": 3360,
      "çķª": 3361,
      "éº»": 3362,
      "åıĺå¾ĹæĽ´åĬł": 3363,
      "é½": 3364,
      "çļĦæīĢ": 3365,
      "èį£": 3366,
      "ï¼ŁâĢĿ": 3367,
      "å¹´æĿ¥": 3368,
      "ä¼łæĴŃ": 3369,
      "è§£åĨ³éĹ®é¢ĺ": 3370,
      "åĮºåĿĹéĵ¾": 3371,
      "æİ¨åĩº": 3372,
      "çļĦæ¯Ķ": 3373,
      "çļĦçŁ¥": 3374,
      "æĺİæĺ¾": 3375,
      "ç§»åĬ¨": 3376,
      "çļĦæķ°éĩı": 3377,
      "éĻĨ": 3378,
      "éĿŀå¸¸å¥½": 3379,
      "ç»´æĬ¤": 3380,
      "çľĭçľĭ": 3381,
      "é¢ĦæĬ¥": 3382,
      "åĳĪçİ°": 3383,
      "èī¾": 3384,
      "çļĦç¥": 3385,
      "å¹¶æ²¡æľī": 3386,
      "çº¯": 3387,
      "ä½ĨæĪĳ": 3388,
      "å¯¹çİ¯å¢ĥ": 3389,
      "éķľ": 3390,
      "å·¨å¤§": 3391,
      "çĶ²": 3392,
      "æĻºèĥ½å®¶å±ħ": 3393,
      "å®¡": 3394,
      "çĸ²": 3395,
      "çĺ": 3396,
      "çĽ´åĪ°": 3397,
      "åį±éĻ©": 3398,
      "æĳĦåħ¥": 3399,
      "éĽ·": 3400,
      "ï¼ļãĢĬ": 3401,
      "çªģçĦ¶": 3402,
      "çļĦè¡Įä¸º": 3403,
      "åĲĮä¹īè¯į": 3404,
      "èī¯å¥½": 3405,
      "æĭ¼åĨĻ": 3406,
      "çļĦæ±": 3407,
      "è¸ª": 3408,
      "è¿ĩåº¦": 3409,
      "ç¾İåħĥ": 3410,
      "åĴĮç¤¾ä¼ļ": 3411,
      "åĮºåŁŁ": 3412,
      "å¡«": 3413,
      "ç¡¬": 3414,
      "çļĦéĢīæĭ©": 3415,
      "è§Ħå¾ĭ": 3416,
      "æĤ¨éľĢè¦ģ": 3417,
      "èĻ«": 3418,
      "éĵ¶è¡Į": 3419,
      "æŃ¦": 3420,
      "åĨ¥æĥ³": 3421,
      "çī¹æ®Ĭ": 3422,
      "å±ĭ": 3423,
      "éĴ¢": 3424,
      "åĶĲ": 3425,
      "åĽŀå®¶": 3426,
      "çļĦçĥŃ": 3427,
      "æį·": 3428,
      "Ġ2": 3429,
      "âĢ¦": 3430,
      "æĶ¯ä»ĺ": 3431,
      "çĽ®çļĦ": 3432,
      "çļĦçĿ": 3433,
      "çļĦç¼": 3434,
      "éļıæĹ¶": 3435,
      "å°ıçĭĹ": 3436,
      "çĶ°": 3437,
      "åīįæĻ¯": 3438,
      "çĵ¶": 3439,
      "åı¯çĪ±": 3440,
      "èħ¿": 3441,
      "å»ºè®¾": 3442,
      "çĶŁæĪĲä¸Ģæ®µ": 3443,
      "äººæ°ĳ": 3444,
      "ä¸°å¯ĮçļĦ": 3445,
      "å¤§èĩªçĦ¶": 3446,
      "çĶ¨çļĦ": 3447,
      "åĽŀæĶ¶": 3448,
      "ä¸ĭåįĪ": 3449,
      "åı¹": 3450,
      "ä»ĸä»¬çļĦå¯¹è¯ĿåĨħå®¹": 3451,
      "å¹ķ": 3452,
      "çļĦæ¸©": 3453,
      "æł·çļĦ": 3454,
      "åĦ¿ç«¥": 3455,
      "æµ®": 3456,
      "æ·¡": 3457,
      "åĪĨæĪĲ": 3458,
      "éĩįå¤į": 3459,
      "åŃĲçļĦ": 3460,
      "éĹª": 3461,
      "èĦ¸": 3462,
      "åĪ°è¾¾": 3463,
      "æĭĽ": 3464,
      "åŁºåĽł": 3465,
      "å¦ĤæŃ¤": 3466,
      "åĪĽå»ºä¸Ģä¸ª": 3467,
      "æĪĳæľĢè¿ĳ": 3468,
      "ç¾İå¥½": 3469,
      "ä»İæĸĩç«łä¸ŃæıĲåıĸ": 3470,
      "æĦīå¿«": 3471,
      "æľīæ²¡æľī": 3472,
      "åĵģç§į": 3473,
      "æģ©": 3474,
      "æĶ¾åħ¥": 3475,
      "çļĦç¨": 3476,
      "çļĦæ¸¸": 3477,
      "æ´Ľ": 3478,
      "åı¯åĨįçĶŁ": 3479,
      "æľīè®¸å¤ļ": 3480,
      "çĶµåŃĲéĤ®ä»¶": 3481,
      "æĸ¼": 3482,
      "å¡ŀ": 3483,
      "ç¯®çĲĥ": 3484,
      "æ¶µ": 3485,
      "ä»İæĸĩç«łä¸ŃæıĲåıĸåĩº": 3486,
      "ç©¿çĿĢ": 3487,
      "è¿Ŀ": 3488,
      "æĪĳä»¬å°Ĩ": 3489,
      "åľ¨äºİ": 3490,
      "çī¹èī²": 3491,
      "æīĺ": 3492,
      "çļĦä¸Ģç§į": 3493,
      "ç§ĭå¤©": 3494,
      "èµ¢": 3495,
      "çļĦæĥ³æ³ķ": 3496,
      "è¢«è®¤ä¸º": 3497,
      "çļĦæ¼": 3498,
      "ĽåĽ´": 3499,
      "çĶŁç´ł": 3500,
      "æľĢå¤§": 3501,
      "ä¿ĿæĬ¤çİ¯å¢ĥ": 3502,
      "éŁ©": 3503,
      "èĥŀ": 3504,
      "è¿Ļé¡¹": 3505,
      "åĵģå°Ŀ": 3506,
      "çļĦæķĻ": 3507,
      "åł¡": 3508,
      "çļĦæīĢæľī": 3509,
      "çļĦçĿ¡": 3510,
      "é£ŁæĿĲ": 3511,
      "çļĦåŁİå¸Ĥ": 3512,
      "å¹³éĿ¢": 3513,
      "çļĦåįķè¯į": 3514,
      "äºĪ": 3515,
      "æķ°åŃ¦é¢ĺ": 3516,
      "éļ¾ä»¥": 3517,
      "éĤ£ä¸ª": 3518,
      "çī©ç§į": 3519,
      "æııè¿°äºĨ": 3520,
      "éģĩåĪ°": 3521,
      "åįł": 3522,
      "é£İæĻ¯": 3523,
      "æĪĲå°±": 3524,
      "æĻ´": 3525,
      "è®°å¿Ĩ": 3526,
      "æĪĲåĪĨ": 3527,
      "åı¯ä»¥è®©": 3528,
      "çļĦæŃĮ": 3529,
      "çļĦç½": 3530,
      "ä¸ĢæĿ¡": 3531,
      "åįĸ": 3532,
      "çĿĽ": 3533,
      "å°º": 3534,
      "è§Ħæ¨¡": 3535,
      "çļĦæĦŁè§ī": 3536,
      "æª": 3537,
      "åĲ«æľī": 3538,
      "æī¹": 3539,
      "çĶŁæĪĲåķĨåĵģæĸĩæ¡Ī": 3540,
      "å½Ĵç±»ä¸º": 3541,
      "è¿Ļé¦ĸ": 3542,
      "æĿ¥æºĲ": 3543,
      "çĪĨ": 3544,
      "å»ºè®®æĤ¨": 3545,
      "éĢĥ": 3546,
      "ä¸Ģé¡¹": 3547,
      "ä»Ķ": 3548,
      "è¿ĺåī©ä¸ĭ": 3549,
      "å°½åı¯èĥ½": 3550,
      "çļĦä½¿çĶ¨": 3551,
      "ä¸»è¯Ń": 3552,
      "çļĦæłĩé¢ĺ": 3553,
      "æĹ©é¤Ĳ": 3554,
      "é£ŀè¡Į": 3555,
      "çĹĩçĬ¶": 3556,
      "è¿Ľè¡ĮäºĨ": 3557,
      "çļĦè¿ĲåĬ¨": 3558,
      "çł´åĿı": 3559,
      "çļĦä¸»è¦ģåĨħå®¹": 3560,
      "ç¬¬ä¸ī": 3561,
      "åĨľä¸ļ": 3562,
      "æ·ĭ": 3563,
      "åŃ¦ä¼ļ": 3564,
      "å½¢è±¡": 3565,
      "çļĦçĿ¡çľł": 3566,
      "åĲī": 3567,
      "æľīæķĪåľ°": 3568,
      "ä¼Ĭ": 3569,
      "çļĦç¤¾ä¼ļ": 3570,
      "çļĦéľĢæ±Ĥ": 3571,
      "ç¬¦åı·": 3572,
      "ä»ĸäºº": 3573,
      "é¦Ī": 3574,
      "çŀ": 3575,
      "èĤº": 3576,
      "æŃĮæĽ²": 3577,
      "Ġ3": 3578,
      "åıĬåħ¶": 3579,
      "æľŁå¾ħ": 3580,
      "åį«çĶŁ": 3581,
      "ä¾¿åĪ©": 3582,
      "æīĢéľĢ": 3583,
      "ç»Ļå®ļçļĦæĸĩæľ¬": 3584,
      "èľĤ": 3585,
      "æĪ´": 3586,
      "èĭ¥": 3587,
      "äºĶä¸ª": 3588,
      "åī¯": 3589,
      "åħħæ»¡äºĨ": 3590,
      "é»Ħèī²": 3591,
      "åģĩè®¾": 3592,
      "åĴĮæĮĳæĪĺ": 3593,
      "åĬ©æīĭ": 3594,
      "æĦŁåħ´è¶£": 3595,
      "å¼±": 3596,
      "é£ŁçĶ¨": 3597,
      "GP": 3598,
      "åĬŀåħ¬": 3599,
      "æĢķ": 3600,
      "æ±¤å§Ĩ": 3601,
      "å¸¸è§ģçļĦ": 3602,
      "ç´¯": 3603,
      "è¿Ľå±ķ": 3604,
      "æĳĺ": 3605,
      "æĪĺäºī": 3606,
      "çļĦç©º": 3607,
      "è§Ħå®ļ": 3608,
      "åºĶè¯¥æĺ¯": 3609,
      "åİŁçĲĨ": 3610,
      "çľĭåĪ°äºĨ": 3611,
      "çļĦæĶ¯": 3612,
      "çĿ£": 3613,
      "Ġå°Ĩ": 3614,
      "çļĦæ·": 3615,
      "åĸľå¥½": 3616,
      "æ¡¥": 3617,
      "ç¾İçļĦ": 3618,
      "æ£Ģæµĭ": 3619,
      "éĿŀå¸¸éĩįè¦ģ": 3620,
      "çĻ¼": 3621,
      "é¡¾å®¢": 3622,
      "æĢ§åĪ«": 3623,
      "æ²Ļæ»©": 3624,
      "æĤ²": 3625,
      "åº¦è¿ĩ": 3626,
      "å°±ä¸ļ": 3627,
      "åĵ¦": 3628,
      "åıĺæĪĲ": 3629,
      "éĩĮæľī": 3630,
      "æģĴ": 3631,
      "çļĦçŁ¥è¯Ĩ": 3632,
      "éĩĮçļĦ": 3633,
      "èĸĦ": 3634,
      "ä¹ĭå¤ĸ": 3635,
      "çļĦæĻºèĥ½": 3636,
      "éĿ¢ç§¯": 3637,
      "åĲ¹": 3638,
      "ä¸ĵæ³¨": 3639,
      "çļĦå®īåħ¨": 3640,
      "è¯Ŀé¢ĺ": 3641,
      "ç¼ºä¹ı": 3642,
      "æĻĤ": 3643,
      "å²¸": 3644,
      "æ¸©å®¤æ°Ķä½ĵ": 3645,
      "åĨħå¿ĥ": 3646,
      "é¢Ħç®Ĺ": 3647,
      "éĽĦ": 3648,
      "ä»°": 3649,
      "ä¸ĢæĿ¯": 3650,
      "åŁĥ": 3651,
      "åı¯éĿł": 3652,
      "åı¯ä»¥æıĲé«ĺ": 3653,
      "æĹ¶åħī": 3654,
      "éĻĦè¿ĳ": 3655,
      "åĲ¬è¯´": 3656,
      "è£ħé¥°": 3657,
      "åĴĮæ²»çĸĹ": 3658,
      "æ¡£": 3659,
      "å·®å¼Ĥ": 3660,
      "é£ĺ": 3661,
      "è§£éĩĬä¸Ģä¸ĭ": 3662,
      "æ¸¯": 3663,
      "è®¡ç®Ĺæľºç§ĳåŃ¦": 3664,
      "çļĦæĮĩ": 3665,
      "æĦīæĤ¦": 3666,
      "èĬ±åĽŃ": 3667,
      "èĩªä¿¡": 3668,
      "çĸ«èĭĹ": 3669,
      "è®¾æĸ½": 3670,
      "å§ĵ": 3671,
      "å®ŀæĸ½": 3672,
      "æıĲéĨĴ": 3673,
      "æĺ¯æĪĳ": 3674,
      "åī§æĥħ": 3675,
      "æµªè´¹": 3676,
      "ç»ĦåĲĪ": 3677,
      "ãĢģâĢľ": 3678,
      "åĮĸåĴĮ": 3679,
      "æīĢåľ¨": 3680,
      "èİ«": 3681,
      "è´¢åĬ¡": 3682,
      "ä¸»è§Ĵ": 3683,
      "çĶµè¯Ŀ": 3684,
      "ä¸Ģéĥ¨": 3685,
      "ä¸ªæľĭåıĭ": 3686,
      "çļĦè¯Ńè¨Ģ": 3687,
      "åĿĩåĮĢ": 3688,
      "åĴĮä¸į": 3689,
      "in": 3690,
      "çĹħäºº": 3691,
      "çļĦåģ¥åº·": 3692,
      "æĺ¯ä¸ĢåĲį": 3693,
      "åľ¨è¿Ļ": 3694,
      "ä¸ŃæĢ§": 3695,
      "éģĩåĪ°äºĨ": 3696,
      "å¤§æķ°æį®": 3697,
      "åĪĨæŀĲåĴĮ": 3698,
      "èİ·å¾ĹäºĨ": 3699,
      "æł¹æį®ç»Ļå®ļçļĦæĸĩæľ¬": 3700,
      "åİ¨": 3701,
      "åıįé¦Ī": 3702,
      "éļĶ": 3703,
      "åĴĮä¸Ģä¸ª": 3704,
      "æıĲåĩºäºĨ": 3705,
      "éħĴåºĹ": 3706,
      "çĽĴ": 3707,
      "ç»Ĩèĥŀ": 3708,
      "æĪĲåĳĺ": 3709,
      "çĪ¬": 3710,
      "åĨįæ¬¡": 3711,
      "ä¸ĢäºĽåħ³äºİ": 3712,
      "å¿§": 3713,
      "çĨĬçĮ«": 3714,
      "æ°ı": 3715,
      "ä»¥ä¸ĭæĺ¯ä¸Ģéģĵ": 3716,
      "åħ¨éĿ¢": 3717,
      "çĪ½": 3718,
      "èĦī": 3719,
      "æĶ¶éĽĨ": 3720,
      "åĵ²åŃ¦": 3721,
      "å¸¸å¸¸": 3722,
      "ç¦ģ": 3723,
      "èįīèİĵ": 3724,
      "èµĸ": 3725,
      "er": 3726,
      "åı¯åĨįçĶŁèĥ½æºĲ": 3727,
      "æµªæ¼«": 3728,
      "èĳ¡èĲ": 3729,
      "èĳ¡èĲĦ": 3730,
      "ä¼Ł": 3731,
      "ä¸įå¤ª": 3732,
      "è§Ĵåº¦": 3733,
      "åŃĹæ¯į": 3734,
      "åħĶ": 3735,
      "çĲĨè§£åĴĮ": 3736,
      "çļĦé¢ľèī²": 3737,
      "çķªèĮĦ": 3738,
      "å¤ªéĺ³èĥ½": 3739,
      "å°ıåŃ¦æķ°åŃ¦é¢ĺ": 3740,
      "å¯¹äººç±»": 3741,
      "æĪĲç»©": 3742,
      "è¯·æıĲä¾Ľ": 3743,
      "ä»¥ä¸ĭæĺ¯ä¸Ģéģĵå°ıåŃ¦æķ°åŃ¦é¢ĺ": 3744,
      "ä¸Ĭè¿°": 3745,
      "æĬ«èĲ¨": 3746,
      "åº¦åģĩ": 3747,
      "ä½łè®¤ä¸º": 3748,
      "éĺ´": 3749,
      "æķ¦": 3750,
      "çı¾": 3751,
      "ç¦»å¼Ģ": 3752,
      "ãĢĭãĢĤ": 3753,
      "çķĻä¸ĭ": 3754,
      "å®¤åĨħ": 3755,
      "çĤ¸": 3756,
      "åĴĮåıĳå±ķ": 3757,
      "æ¶īåıĬåĪ°": 3758,
      "æįķ": 3759,
      "äººåľ¨": 3760,
      "åı¦ä¸Ģä¸ª": 3761,
      "çŃīéĹ®é¢ĺ": 3762,
      "æĻºæħ§": 3763,
      "èĩªä¸»": 3764,
      "éĥ¨éĹ¨": 3765,
      "ç²Ĵ": 3766,
      "çºłéĶĻ": 3767,
      "çļĦæĦıä¹ī": 3768,
      "ä¼łè¾¾": 3769,
      "ç»´çĶŁç´ł": 3770,
      "åħįçĸ«": 3771,
      "èĤ¯å®ļ": 3772,
      "çĶ·åŃ©": 3773,
      "¹é¥": 3774,
      "åĪĻæĺ¯": 3775,
      "å¤§å°ı": 3776,
      "å½¢çĬ¶": 3777,
      "æĽ¾ç»ı": 3778,
      "çī©çĲĨåŃ¦": 3779,
      "å°Ĩå®ĥä»¬": 3780,
      "æĲħ": 3781,
      "éģŃ": 3782,
      "èı²": 3783,
      "¹é¥ª": 3784,
      "è¯¢éĹ®": 3785,
      "åĶ¯": 3786,
      "æĤł": 3787,
      "ä¹ĭå¤Ħ": 3788,
      "çļĦæł¸": 3789,
      "æĸ°åŀĭ": 3790,
      "æĮĩå®ļ": 3791,
      "åĲĪéĢĤçļĦ": 3792,
      "æ¬§æ´²": 3793,
      "èĮĥåĽ´åĨħ": 3794,
      "æī°": 3795,
      "çļĦç»ĵæŀľ": 3796,
      "æ¸¸å®¢": 3797,
      "ç´§å¼ł": 3798,
      "ä¼¼ä¹İ": 3799,
      "om": 3800,
      "çļĩ": 3801,
      "èĢĥè¯ķ": 3802,
      "èıľåĵģ": 3803,
      "åĪºæ¿Ģ": 3804,
      "æŀģç«¯": 3805,
      "ä¹±": 3806,
      "çº·": 3807,
      "ä¸ºæĤ¨æıĲä¾Ľ": 3808,
      "è®¾ç½®": 3809,
      "æĸ¹éĿ¢çļĦ": 3810,
      "è·¨": 3811,
      "åĭķ": 3812,
      "çļĦç²¾": 3813,
      "å¿ł": 3814,
      "çļĦæ²»": 3815,
      "å°±åı¯ä»¥": 3816,
      "æī¬": 3817,
      "25": 3818,
      "åĨħéĥ¨": 3819,
      "è·¯ä¸Ĭ": 3820,
      "ç»¼åĲĪ": 3821,
      "æĺ¥å¤©": 3822,
      "ç´«": 3823,
      "11": 3824,
      "å°ıæĺİæīĭ": 3825,
      "åĩºå¤Ħ": 3826,
      "ä¸ŃçļĦåºĶçĶ¨": 3827,
      "çļĦç³ĸæŀľ": 3828,
      "çļĦæ¶": 3829,
      "è¿Ķ": 3830,
      "âĢĿãĢģâĢľ": 3831,
      "åıĤè§Ĥ": 3832,
      "ä¹Ķ": 3833,
      "å¹´è½»çļĦ": 3834,
      "æľīä¸Ģ": 3835,
      "åħĪçĶŁ": 3836,
      "æľīä¸ĢäºĽ": 3837,
      "å¢Ļ": 3838,
      "è¿ħéĢŁ": 3839,
      "éĿŀå¸¸æĦŁè°¢": 3840,
      "å°Ĩåľ¨": 3841,
      "è¿Ļä¸¤ä¸ª": 3842,
      "è´´": 3843,
      "èĥ¡": 3844,
      "çļĦæıĲ": 3845,
      "åĪĨåŃĲ": 3846,
      "è¿Ļå®¶é¤Ĳåİħ": 3847,
      "ä¸ĭéĻį": 3848,
      "èĬĤçº¦": 3849,
      "å¯¹æĸ¹": 3850,
      "çģŃ": 3851,
      "æĻ¨": 3852,
      "çļĦä¸Ģæ®µ": 3853,
      "åħ´å¥ĭ": 3854,
      "çļĦæ¼Ķ": 3855,
      "æľīçĤ¹": 3856,
      "çļĦæŀ": 3857,
      "éĺ²æŃ¢": 3858,
      "èĤ´": 3859,
      "GPT": 3860,
      "çĶµæ±ł": 3861,
      "æĺ¯éĿŀå¸¸": 3862,
      "è½¦è¾Ĩ": 3863,
      "å·¨å¤§çļĦ": 3864,
      "åħ·å¤ĩ": 3865,
      "é¡ºåºı": 3866,
      "åĬłä¸Ĭ": 3867,
      "èĩªçĦ¶çģ¾å®³": 3868,
      "è¦Ĩ": 3869,
      "è¢ĸ": 3870,
      "åĮ»éĻ¢": 3871,
      "äº§çĶŁäºĨ": 3872,
      "æĲħæĭĮ": 3873,
      "è¯¥æĸĩæľ¬": 3874,
      "åĵĪåĪ©": 3875,
      "æ¬²": 3876,
      "ç¾Ĭ": 3877,
      "çŃīå¾ħ": 3878,
      "è¯Ńæ°Ķ": 3879,
      "å¤§çº¦": 3880,
      "ä¸¾è¡Į": 3881,
      "éĩįè§Ĩ": 3882,
      "å±ħæ°ĳ": 3883,
      "å¾Īæľī": 3884,
      "å¼Ģå¤´": 3885,
      "ä¼ĺè´¨": 3886,
      "æĥ³æ³ķ": 3887,
      "çļĦå°ıè¯´": 3888,
      "æµ·å¹³éĿ¢": 3889,
      "ä¸»è¦ģè§ĤçĤ¹": 3890,
      "çĶŁæĪĲä¸Ģç¯ĩ": 3891,
      "è®¤çŁ¥": 3892,
      "èİī": 3893,
      "æľīçļĦ": 3894,
      "æīĵå¼Ģ": 3895,
      "èĬ³": 3896,
      "åį³ä½¿": 3897,
      "åħħè¶³": 3898,
      "èĤĮèĤī": 3899,
      "èĴ¸": 3900,
      "æĸĩç«łä¸ŃçļĦ": 3901,
      "åħµ": 3902,
      "çļĦæĬĢèĥ½": 3903,
      "ä¾µ": 3904,
      "éĢĤå½ĵçļĦ": 3905,
      "æĪĲè¯Ńåĩºå¤Ħ": 3906,
      "æī®": 3907,
      "æĿ¥è§£åĨ³": 3908,
      "å°ıæĿİ": 3909,
      "æĹ¶åĪ»": 3910,
      "æ½ľåľ¨": 3911,
      "çļĦä¸Ģéĥ¨åĪĨ": 3912,
      "åįģå¹´": 3913,
      "çĮİ": 3914,
      "ç»Łè®¡": 3915,
      "è²Į": 3916,
      "ä¸Ģåľº": 3917,
      "æĮĩå¯¼": 3918,
      "é»ĳèī²": 3919,
      "å¿½": 3920,
      "é¤Ĳé¦Ĩ": 3921,
      "åŃĲéĩĮ": 3922,
      "åį°è±¡": 3923,
      "è¯·æıĲåıĸ": 3924,
      "Jo": 3925,
      "è¢«å¹¿æ³Ľ": 3926,
      "åĩĨç¡®åľ°": 3927,
      "hon": 3928,
      "äººåı£": 3929,
      "å½¼æŃ¤": 3930,
      "å½±åĥı": 3931,
      "åħĭæľį": 3932,
      "åĪĨå¸ĥ": 3933,
      "çİ¯å¢ĥæ±¡æŁĵ": 3934,
      "çľŁå®ŀ": 3935,
      "éĽĨä¸Ń": 3936,
      "ä½¿çĶ¨äºĨ": 3937,
      "è´¦": 3938,
      "å¿ĥèĦı": 3939,
      "çłĶåıĳ": 3940,
      "an": 3941,
      "çļĦæİªæĸ½": 3942,
      "èĩªèº«": 3943,
      "å¤ľæĻļ": 3944,
      "æĪĳè§īå¾Ĺ": 3945,
      "æİĴåºı": 3946,
      "çļĦè®¾è®¡": 3947,
      "å¤ļæķ°": 3948,
      "çĶµå½±çļĦ": 3949,
      "è¾ħåĬ©": 3950,
      "ä¿¡ä»»": 3951,
      "åĸ»": 3952,
      "æİĪ": 3953,
      "çļĦåŁºç¡Ģ": 3954,
      "åĨ¬åŃ£": 3955,
      "16": 3956,
      "èĢĮæĺ¯": 3957,
      "ãĢĭï¼Į": 3958,
      "äºĨå¾Īå¤ļ": 3959,
      "ç¨İ": 3960,
      "åħ¬éĩĮ": 3961,
      "åŁ¹åħ»": 3962,
      "æĴ°": 3963,
      "æľĢå¤§çļĦ": 3964,
      "è¶ħå¸Ĥ": 3965,
      "æĪĳæĺ¯": 3966,
      "çº¤": 3967,
      "ç¬¬ä¸Ģä¸ª": 3968,
      "å¿ĥçĲĨåģ¥åº·": 3969,
      "æľĢé«ĺ": 3970,
      "ç®Ģæ´ģæĺİäºĨ": 3971,
      "èĮ¨": 3972,
      "çĲ´": 3973,
      "æĬ½åıĸåĩº": 3974,
      "æĽ´å¿«": 3975,
      "åı¤èĢģ": 3976,
      "å®£å¸ĥ": 3977,
      "çļĦä»»åĬ¡": 3978,
      "é¡µ": 3979,
      "ä½ľä¸ºä¸Ģä¸ª": 3980,
      "æĶ»åĩ»": 3981,
      "äººä»¬çļĦ": 3982,
      "ç¢İ": 3983,
      "å¤§èĦĳ": 3984,
      "ä¸¤ç§į": 3985,
      "æĸĩæĺİ": 3986,
      "çĽ¾": 3987,
      "çļĦæ²»çĸĹ": 3988,
      "åĴª": 3989,
      "çļĦæł¸å¿ĥ": 3990,
      "äººä½ĵ": 3991,
      "å¯Ĩçłģ": 3992,
      "ç£¨": 3993,
      "æĤ¬": 3994,
      "éĢ²": 3995,
      "çļĦæľįåĬ¡": 3996,
      "åĬ¨åĬĽ": 3997,
      "è®¡ç®Ĺæľºè§Ĩè§ī": 3998,
      "éĺ»": 3999,
      "èį·": 4000,
      "æĪĳæ²¡æľī": 4001,
      "çļĦæ¦Ĥå¿µ": 4002,
      "åĽ¾ä¹¦": 4003,
      "è¿ĳå¹´æĿ¥": 4004,
      "æĢ»çļĦ": 4005,
      "æŀĦå»º": 4006,
      "è§Ĩä¸º": 4007,
      "å¹¶ä¸º": 4008,
      "èĢį": 4009,
      "åŃĲåĴĮ": 4010,
      "èĤ¡ç¥¨": 4011,
      "åħ¬æŃ£": 4012,
      "å¾Īå¤§": 4013,
      "çİ©å®¶": 4014,
      "çļĦæ¢": 4015,
      "çĶĺ": 4016,
      "ä½ľå®¶": 4017,
      "éĩįå¤§": 4018,
      "æĪĸåħ¶ä»ĸ": 4019,
      "éķ¿æĹ¶éĹ´": 4020,
      "éĺµ": 4021,
      "èĩ³åħ³": 4022,
      "å¾ªçİ¯": 4023,
      "åĩ½": 4024,
      "æıĲç¤º": 4025,
      "åıªèĥ½": 4026,
      "åħ¬åĽŃéĩĮ": 4027,
      "åı¯ä»¥å°Ĩ": 4028,
      "æ²¿": 4029,
      "åŃĺåĤ¨": 4030,
      "ħåĬĽ": 4031,
      "åĲįä¸º": 4032,
      "è¿Ľè¡Įæĳĺè¦ģ": 4033,
      "æĺİçĻ½": 4034,
      "äº§åĵģçļĦ": 4035,
      "é¢ĨåŁŁçļĦ": 4036,
      "æĽ´å®¹æĺĵ": 4037,
      "æĿİæĺİ": 4038,
      "æ¢ħ": 4039,
      "çļĦç½ĳ": 4040,
      "æĽ¼": 4041,
      "ä¸Ģåħ±æľī": 4042,
      "çļĦæ¬": 4043,
      "åĴĮå®īåħ¨": 4044,
      "ç»ĵæĿŁ": 4045,
      "ä½łè§īå¾Ĺ": 4046,
      "è£Ļ": 4047,
      "hn": 4048,
      "éł": 4049,
      "ä¸ĭéĽ¨": 4050,
      "çļĦç¾İé£Ł": 4051,
      "çĳŀ": 4052,
      "èıĮ": 4053,
      "å°½éĩı": 4054,
      "æ¯ķ": 4055,
      "çļĦåĬ¨çī©": 4056,
      "èº«ä»½": 4057,
      "æİĺ": 4058,
      "åĨ³äºİ": 4059,
      "çŁ¿": 4060,
      "åıĸåĨ³äºİ": 4061,
      "æł¹æį®ç»Ļå®ļ": 4062,
      "çļĦåŁºæľ¬": 4063,
      "è§Ĵèī²ä¿¡æģ¯": 4064,
      "æĪĳä»¬çļĦçĶŁæ´»": 4065,
      "çģ°": 4066,
      "ä¿Ŀéļľ": 4067,
      "æĭĵ": 4068,
      "ä»·åĢ¼è§Ĥ": 4069,
      "åıĳæĺİ": 4070,
      "è±ª": 4071,
      "çļĦçĶŁæ´»æĸ¹å¼ı": 4072,
      "æ¼Ĥäº®": 4073,
      "ç»ıçĲĨ": 4074,
      "ä¸ºä½ł": 4075,
      "åĽŀçŃĶè¿Ļä¸ªéĹ®é¢ĺ": 4076,
      "åĴĮåºĶçĶ¨": 4077,
      "000": 4078,
      "çļĦäº§åĵģ": 4079,
      "åĲĦåľ°": 4080,
      "åĲĽ": 4081,
      "è½¬åĮĸ": 4082,
      "åķĨåĬ¡": 4083,
      "å°ıçĮ«": 4084,
      "æĢ»çļĦæĿ¥è¯´": 4085,
      "èµ¢å¾Ĺ": 4086,
      "è¯¸": 4087,
      "èģĺ": 4088,
      "çļĦæ½": 4089,
      "çĬ¯ç½ª": 4090,
      "è¯ģæį®": 4091,
      "Ã·": 4092,
      "çº¹": 4093,
      "ä¼¯": 4094,
      "æĳĨ": 4095,
      "ç»´æĮģ": 4096,
      "æĢİæł·": 4097,
      "John": 4098,
      "è¯ķåĽ¾": 4099,
      "é²ģ": 4100,
      "ç¼ºçĤ¹": 4101,
      "æĥ³è±¡": 4102,
      "æŁ¥è¯¢": 4103,
      "åı¯ä»¥éĢīæĭ©": 4104,
      "æĿİåĽĽ": 4105,
      "ä¹ŁéľĢè¦ģ": 4106,
      "Ġå¥½çļĦ": 4107,
      "çļĦçľĭ": 4108,
      "ä¸Ģä»¶": 4109,
      "åĭĩæ°Ķ": 4110,
      "å¤§éĩıçļĦ": 4111,
      "çļĦåĲ«ä¹ī": 4112,
      "èĻİ": 4113,
      "ä»¥æĿ¥": 4114,
      "ä»Ĭå¹´": 4115,
      "æĻĴ": 4116,
      "ä»İè¿Ļç¯ĩæĸĩç«łä¸ŃæıĲåıĸåĩº": 4117,
      "æŁĶè½¯": 4118,
      "æľīæķĪçļĦ": 4119,
      "ä¼¦æķ¦": 4120,
      "åŃĹç¬¦": 4121,
      "æľªçŁ¥": 4122,
      "å§Ķ": 4123,
      "çĽĳæµĭ": 4124,
      "è®¸å¤ļäºº": 4125,
      "AIæĬĢæľ¯": 4126,
      "åı¯ä»¥æł¹æį®": 4127,
      "èİ±": 4128,
      "åĴĮæľįåĬ¡": 4129,
      "åľĪ": 4130,
      "å¿ĥåĴĮ": 4131,
      "åĪļåĪļ": 4132,
      "ä»ª": 4133,
      "ä½Ĩä»ĸ": 4134,
      "éĢĬ": 4135,
      "æĺ¯åħ³äºİ": 4136,
      "ä¸ªæĢ§åĮĸ": 4137,
      "ä¸İåħ¶ä»ĸ": 4138,
      "æĺ¯æľĢ": 4139,
      "åį§": 4140,
      "åīª": 4141,
      "é¸£": 4142,
      "çłĶç©¶è¡¨æĺİ": 4143,
      "æĥħæĦŁåĪĨæŀĲ": 4144,
      "å¹½": 4145,
      "çļĦåıĺåĮĸ": 4146,
      "çİ©èĢį": 4147,
      "åıĤèĢĥ": 4148,
      "å¥½å¤Ħ": 4149,
      "çļĦçĸ": 4150,
      "ä¸ĵå®¶": 4151,
      "èĢħçļĦ": 4152,
      "èĢĮè¨Ģ": 4153,
      "å°ıåįİ": 4154,
      "ç¡®å®ŀ": 4155,
      "è¿Ļç¯ĩæĸĩç«łä¸Ń": 4156,
      "çĽĳçĿ£": 4157,
      "çļ®èĤ¤": 4158,
      "ä¼Ļ": 4159,
      "ä¸įè¶³": 4160,
      "çļĦæĥħåĨµä¸ĭ": 4161,
      "ç¢į": 4162,
      "éĻ·": 4163,
      "æ°¸è¿ľ": 4164,
      "å°±ä¼ļ": 4165,
      "èĬĿ": 4166,
      "çºłæŃ£": 4167,
      "éĤĢ": 4168,
      "è´Łè´£": 4169,
      "å§¿": 4170,
      "æĢª": 4171,
      "çļĦåħ·ä½ĵ": 4172,
      "çļĦæĶ¯æĮģ": 4173,
      "æģĭ": 4174,
      "éĩĮéĿ¢": 4175,
      "éĩĩåıĸæİªæĸ½": 4176,
      "æľīçĽĬ": 4177,
      "åĲĮåŃ¦": 4178,
      "åĴĮè°": 4179,
      "æŀĿ": 4180,
      "èħĲ": 4181,
      "è¯ģæĺİ": 4182,
      "åį°åº¦": 4183,
      "å¤§åŀĭ": 4184,
      "åĩ¡": 4185,
      "åĩºè¡Į": 4186,
      "è¯Ńåı¥": 4187,
      "è°ĥåĳ³": 4188,
      "æ¥ļ": 4189,
      "çļĦè¿ĩç¨ĭ": 4190,
      "å¹´è½»äºº": 4191,
      "çļĦæĢģ": 4192,
      "çİ©åħ·": 4193,
      "è®¿éĹ®": 4194,
      "ç®Ģçº¦": 4195,
      "çļĦé£İæł¼": 4196,
      "è°Ĭ": 4197,
      "åĽłä¸ºå®ĥä»¬": 4198,
      "äºĭæķħ": 4199,
      "æŃ»äº¡": 4200,
      "ä»¥ä¸ĭæ®µèĲ½": 4201,
      "åı¯èĥ½å¯¼èĩ´": 4202,
      "æĪĳæĥ³çŁ¥éģĵ": 4203,
      "å®ŀçĶ¨": 4204,
      "åĸľçĪ±": 4205,
      "æª¬": 4206,
      "æĽ´ä¸º": 4207,
      "å±±å³°": 4208,
      "æīĭæ®µ": 4209,
      "äº§ä¸ļ": 4210,
      "è§Ĥçľĭ": 4211,
      "çļĦæĥħç»ª": 4212,
      "åıĸå¾ĹäºĨ": 4213,
      "ce": 4214,
      "éĺĶ": 4215,
      "è¡«": 4216,
      "æĭĶ": 4217,
      "è¿ĻæĦıåĳ³çĿĢ": 4218,
      "æµģç¨ĭ": 4219,
      "Ġ1": 4220,
      "å°ıæĺİåĴĮ": 4221,
      "ĽçĽ¾": 4222,
      "æĳĩ": 4223,
      "łæª¬": 4224,
      "å±ı": 4225,
      "æŁ¥çľĭ": 4226,
      "çļĦæĹħæ¸¸": 4227,
      "çļĦçĬ": 4228,
      "å²©": 4229,
      "è¿ĲçĶ¨": 4230,
      "è¶³å¤ŁçļĦ": 4231,
      "ä¸Ģæ®µæĸĩæľ¬": 4232,
      "äººå£«": 4233,
      "èĴľ": 4234,
      "æ£ī": 4235,
      "åľ°ä¸Ĭ": 4236,
      "le": 4237,
      "çĶ·åŃĲ": 4238,
      "ä¿Ĺ": 4239,
      "åŀĥåľ¾åĪĨç±»": 4240,
      "è¢«ç§°ä¸º": 4241,
      "æĦŁåĪ°éĿŀå¸¸": 4242,
      "èĴĤ": 4243,
      "èıľèĤ´": 4244,
      "æŃ£å¼ı": 4245,
      "åŁ¹è®Ń": 4246,
      "å¤ļæł·æĢ§": 4247,
      "æĪĳä¸į": 4248,
      "æł¹æį®ä»¥ä¸ĭæĸĩæľ¬": 4249,
      "åĭĩæķ¢": 4250,
      "ç¼ĸåĨĻä¸Ģä¸ª": 4251,
      "ç©Ĩ": 4252,
      "åĢĴåħ¥": 4253,
      "å¹´ä»£": 4254,
      "åİĺ": 4255,
      "éķ¿çļĦ": 4256,
      "çĽ¸åıį": 4257,
      "è¿Ļæ¬¡": 4258,
      "å½±çīĩ": 4259,
      "ä¸ģ": 4260,
      "åħ³éĶ®åŃĹ": 4261,
      "çļĦçĭĹ": 4262,
      "âĢĿãĢĤ<|": 4263,
      "æī®æ¼Ķ": 4264,
      "ä¸»äººåħ¬": 4265,
      "çļĦçľĭæ³ķ": 4266,
      "æĬĢæľ¯åĴĮ": 4267,
      "æ²Ļæĭī": 4268,
      "åĪ©çĽĬ": 4269,
      "åľºæīĢ": 4270,
      "çĥ¹é¥ª": 4271,
      "è£ģ": 4272,
      "æĳ©": 4273,
      "æĶ¶åħ¥": 4274,
      "çĽŁ": 4275,
      "çļĦæĬķ": 4276,
      "å±ķå¼Ģ": 4277,
      "ç§Ł": 4278,
      "çļĦæ¸¸æĪı": 4279,
      "\"<|": 4280,
      "äº¤äºĴ": 4281,
      "17": 4282,
      "åĪĺ": 4283,
      "æŃ£å¸¸": 4284,
      "çģµæ´»": 4285,
      "å¼ķåıĳ": 4286,
      "æĪĲåĬŁçļĦ": 4287,
      "ä¾Ŀèµĸ": 4288,
      "ä¹Łä¸į": 4289,
      "æłĩçŃ¾": 4290,
      "æģ¢": 4291,
      "ä¸Ńæľī": 4292,
      "åĮ¹": 4293,
      "å®ŀæĹ¶": 4294,
      "æ¸ħæĸ°": 4295,
      "ä¸Ģå¹´": 4296,
      "çļĦæģ": 4297,
      "å½ĵæĹ¶": 4298,
      "éĩİçĶŁ": 4299,
      "çļĦä¸ĢäºĽ": 4300,
      "æĪĲæŀľ": 4301,
      "èĢģæĿ¿": 4302,
      "èģĮä½į": 4303,
      "åĿĢ": 4304,
      "æŁ¥æī¾": 4305,
      "æĻºèĥ½æīĭæľº": 4306,
      "å¤®": 4307,
      "å¿ħè¦ģçļĦ": 4308,
      "èŃ¦å¯Ł": 4309,
      "åĴĮæ°´": 4310,
      "æµ·å¹³éĿ¢ä¸Ĭåįĩ": 4311,
      "æĺ¾èĳĹ": 4312,
      "åľ¨ä¸ŃåĽ½": 4313,
      "æİ¢éĻ©": 4314,
      "çļĦçĽ®æłĩ": 4315,
      "è¿«": 4316,
      "å°¿": 4317,
      "æ³¢çī¹": 4318,
      "éĺ¶æ®µ": 4319,
      "æĭħå¿ĥ": 4320,
      "çļĦæ¢¦": 4321,
      "äºĮæ°§åĮĸ": 4322,
      "çļĦçī¹çĤ¹": 4323,
      "ä»Ļ": 4324,
      "çĸĳéĹ®": 4325,
      "è·ĥ": 4326,
      "çļĦæ³ķ": 4327,
      "åİŁæĸĩ": 4328,
      "åºĨç¥Ŀ": 4329,
      "ä¸ªæ©ĻåŃĲ": 4330,
      "ç«¹": 4331,
      "è®¤çľŁ": 4332,
      "å¢¨": 4333,
      "ä¸įè¶ħè¿ĩ": 4334,
      "çĭ®": 4335,
      "åı¯ä»¥çĶ¨": 4336,
      "ä»İè¿Ļç¯ĩæĸĩç«łä¸ŃæıĲåıĸ": 4337,
      "æĺĵæĩĤ": 4338,
      "æĹłéĻĲ": 4339,
      "åĲĮæł·": 4340,
      "æ·±è¿ľ": 4341,
      "å·¥èīº": 4342,
      "æ³ķè§Ħ": 4343,
      "å¿ĥæĢģ": 4344,
      "çļĦä¸ĸçķĮ": 4345,
      "ä¹°äºĨ": 4346,
      "çļĦçľŁ": 4347,
      "åħ¶ä¸ŃåĮħæĭ¬": 4348,
      "è°ĵè¯Ń": 4349,
      "é¸¡èĤī": 4350,
      "ä½ĵéĩį": 4351,
      "å¯¼æ¼Ķ": 4352,
      "è¦ģçĤ¹": 4353,
      "åŁİå¸ĤçļĦ": 4354,
      "èİİ": 4355,
      "åŃ¦ç§ĳ": 4356,
      "æĬĳ": 4357,
      "å¤§å¤ļæķ°": 4358,
      "æ¶µçĽĸ": 4359,
      "å·¥ç¨ĭå¸Ī": 4360,
      "èĬĤæĹ¥": 4361,
      "åĢ¼å¾Ĺä¸Ģ": 4362,
      "åı¯ä»¥èĢĥèĻĳ": 4363,
      "è¢«è®¤ä¸ºæĺ¯": 4364,
      "æī¾åĪ°äºĨ": 4365,
      "éĩĬæĶ¾": 4366,
      "æľĢéĩįè¦ģ": 4367,
      "é²¸": 4368,
      "ä¼¦çĲĨ": 4369,
      "çļĦçĮ": 4370,
      "éĥ½åľ¨": 4371,
      "å¦Ĥæŀľä½łåĸľæ¬¢": 4372,
      "åĲĥäºĨ": 4373,
      "åĲĪçī©": 4374,
      "éĹ®é¢ĺçļĦ": 4375,
      "çŁ¥åĲį": 4376,
      "åĴĮæĶ¯æĮģ": 4377,
      "å¼Ģå¿ĥ": 4378,
      "ä¸įæĸŃåľ°": 4379,
      "ä¸Ģç³»åĪĹ": 4380,
      "ç¡®è®¤": 4381,
      "åģļå¥½": 4382,
      "å¦Ĥä½ķåľ¨": 4383,
      "æĺ¯åĲ¦æľī": 4384,
      "æıŃ": 4385,
      "çº¤ç»´": 4386,
      "éľľ": 4387,
      "åıĭè°Ĭ": 4388,
      "çļĦæĽ": 4389,
      "é¸Ń": 4390,
      "æĭľ": 4391,
      "æĥľ": 4392,
      "çļĦæ¨": 4393,
      "çĩķ": 4394,
      "æĦŁæŁĵ": 4395,
      "è´§å¸ģ": 4396,
      "å°Ĩä»¥ä¸ĭæĸĩæľ¬": 4397,
      "å°Ĩä»¥ä¸ĭåı¥åŃĲ": 4398,
      "åĽ¾åĥıè¯ĨåĪ«": 4399,
      "å¼Ł": 4400,
      "å¾Ĵ": 4401,
      "åľ¨è¿ĩåİ»": 4402,
      "å°Ĭæķ¬": 4403,
      "çĭĹçĭĹ": 4404,
      "éģµå®Ī": 4405,
      "çļĦæ¶Ī": 4406,
      "é£Łè°±": 4407,
      "å¦ĩ": 4408,
      "æŁłæª¬": 4409,
      "æķĪçİĩåĴĮ": 4410,
      "çļĦä¸»æĹ¨": 4411,
      "åĩ½æķ°": 4412,
      "å¥½çľĭ": 4413,
      "èĤł": 4414,
      "äººç±»æ´»åĬ¨": 4415,
      "è¶ĬæĿ¥è¶Ĭå¤ļ": 4416,
      "æŃĮè¯į": 4417,
      "çĽĳç®¡": 4418,
      "æĽ¿ä»£": 4419,
      "æİ¨æĸŃ": 4420,
      "æĦıè¯ĨåĪ°": 4421,
      "æ®ĸ": 4422,
      "æĲº": 4423,
      "60": 4424,
      "ä¼ļå¯¼èĩ´": 4425,
      "2021": 4426,
      "èĤĸ": 4427,
      "çļĦç¥ŀ": 4428,
      "åľ¨å®¶éĩĮ": 4429,
      "è½»è½»": 4430,
      "æµ·è¾¹": 4431,
      "æĦ¿æĦı": 4432,
      "ç»ĻäºĨ": 4433,
      "æĪĳä¹Ł": 4434,
      "çļĦæŃ£": 4435,
      "æĻ®éĢļ": 4436,
      "éĨī": 4437,
      "ä¹ĭéĹ´çļĦåħ³ç³»": 4438,
      "å·²ç»ıæĪĲä¸º": 4439,
      "æĶ¯éĵħç¬Ķ": 4440,
      "åĽŀå¿Ĩ": 4441,
      "ä½łåľ¨": 4442,
      "è¯¥åħ¬åı¸": 4443,
      "åĸľæ¬¢åĲĥ": 4444,
      "éĥ½åı¯ä»¥": 4445,
      "åĪł": 4446,
      "çļĦæĳĦ": 4447,
      "çļĦæ·±": 4448,
      "éĻ¤ä»¥": 4449,
      "èıľåįķ": 4450,
      "æĹłäºº": 4451,
      "æĿ¥å®ŀçİ°": 4452,
      "è¿Ł": 4453,
      "éĻª": 4454,
      "çļĦæ½ľ": 4455,
      "40": 4456,
      "è·¯çº¿": 4457,
      "æ´ª": 4458,
      "éģİ": 4459,
      "æııç»ĺ": 4460,
      "æĽ´æľī": 4461,
      "èģļä¼ļ": 4462,
      "æĪĲä¸Ģä¸ª": 4463,
      "äºĴçĽ¸": 4464,
      "ä¸ĢåĢĭ": 4465,
      "é¸Łç±»": 4466,
      "çļĦçĪ±æĥħ": 4467,
      "æİĴåĪĹ": 4468,
      "èĴĻ": 4469,
      "åľ°çĲĥçļĦ": 4470,
      "æĮĤ": 4471,
      "ç¤¼çī©": 4472,
      "å°ıé¸Ł": 4473,
      "æĤī": 4474,
      "éģĵè·¯": 4475,
      "åĴĮè°Ĳ": 4476,
      "äºĮæ°§åĮĸç¢³": 4477,
      "çļĦæİĴ": 4478,
      "æ¡ĥ": 4479,
      "æĽ´æĸ°": 4480,
      "ä¿ĿéĻ©": 4481,
      "æľºåĪ¶": 4482,
      "è´¸": 4483,
      "åĢį": 4484,
      "åĪĹä¸¾": 4485,
      "åĭĴ": 4486,
      "ä½łä¼ļ": 4487,
      "å¯¹åħ¶": 4488,
      "ä»ĸæĥ³": 4489,
      "ä»ĭç»įä¸Ģä¸ĭ": 4490,
      "èĭ±æĸĩ": 4491,
      "çĻ½èī²": 4492,
      "äºĭä¸ļ": 4493,
      "çļĦä¸į": 4494,
      "åį«æĺŁ": 4495,
      "å®ĹæķĻ": 4496,
      "èĬĴ": 4497,
      "è¯»ä¹¦": 4498,
      "åķĨåºĹ": 4499,
      "ä¿ĿæĮģåģ¥åº·": 4500,
      "ä¸ľäº¬": 4501,
      "è¯·çĶ¨": 4502,
      "ä»¿ä½Ľ": 4503,
      "èĥ½åĬĽåĴĮ": 4504,
      "æł¹æį®è¾ĵåħ¥": 4505,
      "æģ¢å¤į": 4506,
      "åĪĢ": 4507,
      "çİĩåĴĮ": 4508,
      "çº½çº¦å¸Ĥ": 4509,
      "ä¸Ģå¼ł": 4510,
      "æ·ĩ": 4511,
      "ä¸ĢçĽ´åľ¨": 4512,
      "\"ï¼Į": 4513,
      "è®©äººä»¬": 4514,
      "èĻļæĭŁçİ°å®ŀ": 4515,
      "çļĦæŁ": 4516,
      "éĿ¢æĸĻ": 4517,
      "çļĦé«ĺ": 4518,
      "çļĦæŃ¥": 4519,
      "çļĦå¤ĸ": 4520,
      "åĽ¾ä¹¦é¦Ĩ": 4521,
      "å°½åĬĽ": 4522,
      "åĲĮäºĭ": 4523,
      "çŃĶæ¡Īæĺ¯": 4524,
      "èĥ¸": 4525,
      "ä¼¤å®³": 4526,
      "é¢ĨåŁŁä¸Ń": 4527,
      "è¿Ĳè¡Į": 4528,
      "ç§įæ¤į": 4529,
      "æĻ®éģį": 4530,
      "å°ıæľĭåıĭ": 4531,
      "å¦Īå¦Ī": 4532,
      "æłĩå¿Ĺ": 4533,
      "æĬĵ": 4534,
      "éªĮè¯ģ": 4535,
      "è¯´è¯Ŀ": 4536,
      "çĭĤ": 4537,
      "åĵªç§į": 4538,
      "ä»İä»¥ä¸ĭ": 4539,
      "èĢĢ": 4540,
      "åıĭå¥½": 4541,
      "å£¤": 4542,
      "æľºåĻ¨åŃ¦ä¹łç®Ĺæ³ķ": 4543,
      "ä»ĸä»¬åľ¨": 4544,
      "å¾Īå¥½çļĦ": 4545,
      "çļĦåħ³ç³»": 4546,
      "æĪĳéĿŀå¸¸": 4547,
      "çĬ¹": 4548,
      "æĺ¯å¤ļå°ĳ": 4549,
      "åħīçº¿": 4550,
      "åĨ°æ·ĩ": 4551,
      "åĪ«äºº": 4552,
      "éĺĲ": 4553,
      "åĬĽåŃ¦": 4554,
      "å°ıæĺİå®¶": 4555,
      "äººå·¥æĻºèĥ½çļĦåıĳå±ķ": 4556,
      "çĶ·æĢ§": 4557,
      "æĻºèĥ½åĮĸ": 4558,
      "åľ°éľĩ": 4559,
      "åĪĽä¸ļ": 4560,
      "å°±åĥı": 4561,
      "ä¸¦": 4562,
      "åĨ°æ·ĩæ·ĭ": 4563,
      "ä¼ĺæĥł": 4564,
      "æ¯ĶèµĽä¸Ń": 4565,
      "ç¾¤ä½ĵ": 4566,
      "Tom": 4567,
      "æĺ¯ä¸į": 4568,
      "åıªè¦ģ": 4569,
      "æĸ°éĹ»æĸĩç«ł": 4570,
      "çļĦæľºä¼ļ": 4571,
      "èĥľåĪ©": 4572,
      "åħļ": 4573,
      "æħ¢æħ¢": 4574,
      "ä¾ĽåºĶ": 4575,
      "ä¸²": 4576,
      "ä½¿çĶ¨çļĦ": 4577,
      "åħ¬ä¼Ĺ": 4578,
      "çĥŃæĥħ": 4579,
      "çĶŁæĪĲæĳĺè¦ģ": 4580,
      "æ¦Ĥè¿°": 4581,
      "æĽ´é«ĺ": 4582,
      "å¼ķåĬĽ": 4583,
      "åĬłéĢŁ": 4584,
      "ä¸§": 4585,
      "æ¢¦æĥ³": 4586,
      "åįľ": 4587,
      "æĺ¯åĽłä¸º": 4588,
      "åĴĮæľĭåıĭ": 4589,
      "åĪĩæĪĲ": 4590,
      "ï¼ļ\"": 4591,
      "å®¿": 4592,
      "æĮĩçļĦæĺ¯": 4593,
      "åĪ·": 4594,
      "å®Įç¾İ": 4595,
      "å°ĺ": 4596,
      "æĺ¯å¦Ĥä½ķ": 4597,
      "æ³Ĭ": 4598,
      "å¼Ĺ": 4599,
      "è°ĥèĬĤ": 4600,
      "é£ŀæľº": 4601,
      "è®²è¿°äºĨä¸Ģä¸ª": 4602,
      "çļĦæ¯ı": 4603,
      "åĭ¤": 4604,
      "å«Į": 4605,
      "æľĢåĸľæ¬¢çļĦ": 4606,
      "åľ¨è¿ĻéĩĮ": 4607,
      "è¿Ļåıª": 4608,
      "åħ¶å®ŀ": 4609,
      "çļĦçĻ": 4610,
      "æĿĥåĪ©": 4611,
      "ä¸Ĭæĸĩ": 4612,
      "ç¨®": 4613,
      "çĽĹ": 4614,
      "çŁĽçĽ¾": 4615,
      "è¯ķè¯ķ": 4616,
      "çļĦè¯ĹæŃĮ": 4617,
      "ä¾§": 4618,
      "èº«ä½ĵåĴĮ": 4619,
      "ä¿¡ä»°": 4620,
      "çĽ®çļĦæĺ¯": 4621,
      "çļĦæ£": 4622,
      "è¿Ļæĺ¯ä¸Ģç¯ĩ": 4623,
      "24": 4624,
      "æī©å¤§": 4625,
      "çļĦç¼ĸ": 4626,
      "å¯¸": 4627,
      "ç®Ģä»ĭ": 4628,
      "ãĢĤ'": 4629,
      "æĿİåįİ": 4630,
      "åĴĮå·¥ä½ľ": 4631,
      "åĬĽäºİ": 4632,
      "æı´": 4633,
      "å¹¶å°Ĩåħ¶": 4634,
      "å§ĵåĲį": 4635,
      "æ¶Ĥ": 4636,
      "å°ĳå¹´": 4637,
      "è¿Ļå°Ĩ": 4638,
      "ä¸Ģçīĩ": 4639,
      "å¹¶å°Ĩ": 4640,
      "å¦Ĥæŀľä½łæĥ³": 4641,
      "ä¸įæĸŃåıĳå±ķ": 4642,
      "å¹¿æ³ĽåºĶçĶ¨": 4643,
      "éĩĩåıĸè¡ĮåĬ¨": 4644,
      "è¿Ļæł·çļĦ": 4645,
      "çļĦçľ¼": 4646,
      "14": 4647,
      "çļĦä½įç½®": 4648,
      "å®¶åħ·": 4649,
      "è¯ĨåĪ«åĩº": 4650,
      "çļĦè´¨éĩı": 4651,
      "ä½łå¯¹": 4652,
      "æĦıå¤§åĪ©éĿ¢": 4653,
      "é¬": 4654,
      "æ®ĭ": 4655,
      "è½¨": 4656,
      "æĵİ": 4657,
      "å¤©çĦ¶": 4658,
      "ä¸įéľĢè¦ģ": 4659,
      "å¥Ķ": 4660,
      "åĲįè¯įçŁŃè¯Ń": 4661,
      "æīĭæľ¯": 4662,
      "æľĢæĸ°çļĦ": 4663,
      "äº¤éĢļå·¥åħ·": 4664,
      "çĤ¹ç¬¦åı·": 4665,
      "æĹģ": 4666,
      "å¯Įæľī": 4667,
      "è¿Ļæ®µæĸĩåŃĹ": 4668,
      "åĴĮå¹³": 4669,
      "å¹¶ä¸įæĺ¯": 4670,
      "åıĸä»£": 4671,
      "çīĽèĤī": 4672,
      "æĥħæĦŁåĪĨç±»": 4673,
      "ãĢĮ": 4674,
      "ä»¥ä¸ĭéĹ®é¢ĺ": 4675,
      "ä¿®æŃ£": 4676,
      "å®Ŀå®Ŀ": 4677,
      "åİŁåĪĻ": 4678,
      "æī£": 4679,
      "æĶ¾å¼ĥ": 4680,
      "æ·±åĳ¼åĲ¸": 4681,
      "æĺ¯æĪĳä»¬": 4682,
      "è´«": 4683,
      "å¯¹è±¡": 4684,
      "é»ĳæļĹ": 4685,
      "è§ĦèĮĥ": 4686,
      "æ¯«": 4687,
      "è¿ĺèĥ½": 4688,
      "NA": 4689,
      "ãĢį": 4690,
      "å°½å¿«": 4691,
      "å¹¶ç»Ļåĩº": 4692,
      "æĶ¹ä¸º": 4693,
      "li": 4694,
      "è½¬æį¢ä¸º": 4695,
      "èĺ": 4696,
      "ä½łæľīä»Ģä¹Ī": 4697,
      "æıĲä¾ĽçļĦ": 4698,
      "å¯¿åĳ½": 4699,
      "åı£è¯Ń": 4700,
      "åħĶåŃĲ": 4701,
      "æĢİä¹Īæł·": 4702,
      "æĪĳå°Ĩ": 4703,
      "åıĳåĩº": 4704,
      "åºĦ": 4705,
      "åĩĨç¡®æĢ§": 4706,
      "çļĦæ°´æŀľ": 4707,
      "æĽ´å¥½åľ°çĲĨè§£": 4708,
      "å¯Ĥ": 4709,
      "ä¹Į": 4710,
      "ä¹Łå°±æĺ¯": 4711,
      "æĺ¯ä¸ª": 4712,
      "éħª": 4713,
      "æ¶ĪèĢĹ": 4714,
      "æĤ¨å¥½": 4715,
      "Ġ5": 4716,
      "æİ¥çĿĢ": 4717,
      "ä¸ĢåĪĩ": 4718,
      "çĥ¦": 4719,
      "æĹ¥å¸¸çĶŁæ´»": 4720,
      "åľºåĲĪ": 4721,
      "æĿ¥æıĲé«ĺ": 4722,
      "åģıå¥½": 4723,
      "åľ¨æŃ¤": 4724,
      "ç¥ŀç§ĺçļĦ": 4725,
      "å½ĵä»Ĭ": 4726,
      "ä¸¥æł¼": 4727,
      "å¼ķæĵİ": 4728,
      "æ¸ħåįķ": 4729,
      "ç¬¬äºĮä¸ª": 4730,
      "ç±»åŀĭçļĦ": 4731,
      "åĽ½åĨħ": 4732,
      "ä¸īç§į": 4733,
      "åĮºåĪ«": 4734,
      "ï¼ļ'": 4735,
      "æł¹æį®æīĢ": 4736,
      "å¼ºå¤§": 4737,
      "ç½ļ": 4738,
      "è¯·å¯¹": 4739,
      "çĮª": 4740,
      "æĿ¥çľĭ": 4741,
      "æııè¿°ä¸Ģä¸ĭ": 4742,
      "èĬĤå¥ı": 4743,
      "çīĪæľ¬": 4744,
      "æİ¨èįĲä¸ĢäºĽ": 4745,
      "ä¼¸": 4746,
      "åİĤ": 4747,
      "çŃīæĸ¹å¼ı": 4748,
      "åİĭåĬĽåĴĮ": 4749,
      "è´¹çĶ¨": 4750,
      "çĩĥæĸĻ": 4751,
      "æıĴ": 4752,
      "åĴĮåĪĨæŀĲ": 4753,
      "æµ¸": 4754,
      "æĪ·å¤ĸæ´»åĬ¨": 4755,
      "ä¼łéĢĴ": 4756,
      "å°¼åħĭ": 4757,
      "æĦŁåĴĮ": 4758,
      "åĲ¬åĪ°": 4759,
      "å¯¹æīĭ": 4760,
      "è¿Ļä½į": 4761,
      "èį¡": 4762,
      "çļĦæĢģåº¦": 4763,
      "åĲİçļĦ": 4764,
      "æĬµ": 4765,
      "çĶµåĬ¨": 4766,
      "èĬ±è´¹": 4767,
      "æĢģåº¦": 4768,
      "åıĺéĿ©": 4769,
      "å°¤åħ¶æĺ¯": 4770,
      "è¦ģæ³¨æĦı": 4771,
      "åŃĶ": 4772,
      "å£ģ": 4773,
      "å¹¿æ³ĽçļĦåºĶçĶ¨": 4774,
      "èĬ¬": 4775,
      "å¤±åİ»": 4776,
      "æ¨¡ä»¿": 4777,
      "è¯ĦåĪĨ": 4778,
      "çļĦåŃ¦ä¹ł": 4779,
      "åĽĽä¸ª": 4780,
      "åı¯èĥ½æĢ§": 4781,
      "æĸ°äº§åĵģ": 4782,
      "åģ·": 4783,
      "åı«åģļ": 4784,
      "é«Ķ": 4785,
      "åı¯ä»¥æĺ¯": 4786,
      "è¾ŀ": 4787,
      "æ»¤": 4788,
      "å¥½äºĨ": 4789,
      "åĮĸåĲĪçī©": 4790,
      "äºİæĺ¯": 4791,
      "ä¸ĢçĤ¹": 4792,
      "è´¯": 4793,
      "çľ¼çĿĽ": 4794,
      "13": 4795,
      "éĻ¤æŃ¤": 4796,
      "ç¢Ĺ": 4797,
      "éĶĢåĶ®é¢Ŀ": 4798,
      "æŀĦæĪĲ": 4799,
      "åİ¿": 4800,
      "å°Ĩä¸ĭéĿ¢": 4801,
      "æľīæĹ¶": 4802,
      "åĲĪåĲĮ": 4803,
      "åłµ": 4804,
      "é³": 4805,
      "äººå·¥æĻºèĥ½çļĦåºĶçĶ¨": 4806,
      "æľºåĻ¨ç¿»è¯ĳ": 4807,
      "èĪĩ": 4808,
      "æ°´åĴĮ": 4809,
      "éļıæľº": 4810,
      "é¦Ļæ¸¯": 4811,
      "é©±": 4812,
      "çļĦæĸĩåĮĸ": 4813,
      "åĶ¯ä¸Ģ": 4814,
      "åľŁå£¤": 4815,
      "æ°´ä¸Ń": 4816,
      "èĩ´åĬĽäºİ": 4817,
      "åıĳå±ķçļĦ": 4818,
      "ä¸ºä¸Ģä¸ª": 4819,
      "é¦¨": 4820,
      "ä¿¡åı·": 4821,
      "å¥¥è¿Ĳ": 4822,
      "æ¯ıæ¬¡": 4823,
      "è¯Ńæ³ķåĴĮ": 4824,
      "åĢ¾åĲĳ": 4825,
      "æĺ¯ä¸Ģé¡¹": 4826,
      "æĻ¯è§Ĥ": 4827,
      "éĤĢè¯·": 4828,
      "å®ģéĿĻ": 4829,
      "éľĢè¦ģæ³¨æĦıçļĦæĺ¯": 4830,
      "å¿ĥçģµ": 4831,
      "çļĦç¾İå¥½": 4832,
      "æĺĵäºİçĲĨè§£": 4833,
      "æĸĩä¸Ń": 4834,
      "ç»ĻæĪĳä¸Ģä¸ª": 4835,
      "å¯¹æĸĩæľ¬": 4836,
      "èĭ±éĽĦ": 4837,
      "æķ´ä½ĵ": 4838,
      "éĩįåĨĻä»¥ä¸ĭåı¥åŃĲ": 4839,
      "éĻ¤æŃ¤ä¹ĭå¤ĸ": 4840,
      "æĵħ": 4841,
      "è±¡å¾ģ": 4842,
      "èģĶåĲĪ": 4843,
      "åĴĮæķ°æį®": 4844,
      "yt": 4845,
      "æĮĳ": 4846,
      "å®ĮåĸĦ": 4847,
      "æĢİä¹ĪåĬŀ": 4848,
      "éĿŀå¸¸æľī": 4849,
      "æ¨¡æĭŁäººç±»": 4850,
      "å¦¹": 4851,
      "æĪĲç«ĭ": 4852,
      "çİ°åľ¨è¯·ä½ł": 4853,
      "èµĦæĸĻ": 4854,
      "èµĭ": 4855,
      "åı¦ä¸Ģ": 4856,
      "è®¯": 4857,
      "ãĢĤãĢĬ": 4858,
      "è¿ĻäºĽéĹ®é¢ĺ": 4859,
      "å¤±è´¥": 4860,
      "è¿Ļåº§": 4861,
      "å¾Īéļ¾": 4862,
      "æĮĸ": 4863,
      "çļĦæµģ": 4864,
      "èħ»": 4865,
      "éĸĭ": 4866,
      "å¸¦æĿ¥çļĦ": 4867,
      "å¾·åĽ½": 4868,
      "åĴĮé«ĺ": 4869,
      "ç»Ĵ": 4870,
      "æ¤ħ": 4871,
      "å¸Ń": 4872,
      "åĴĮæĬĢæľ¯": 4873,
      "é¢Ħè®¡": 4874,
      "é½Ĳ": 4875,
      "èĬĤçĽ®": 4876,
      "åĮĹæŀģ": 4877,
      "æĩī": 4878,
      "å¸½": 4879,
      "çģ«æĺŁ": 4880,
      "å½ĵä½ł": 4881,
      "ä¸¾åĬŀ": 4882,
      "æľīäºº": 4883,
      "å®īè£ħ": 4884,
      "çļĦæ¨¡": 4885,
      "å¸®æĪĳæĥ³": 4886,
      "çļĦæĹ¥": 4887,
      "çļĦç¨ĭ": 4888,
      "çĻĮçĹĩ": 4889,
      "åı¯èĥ½ä¼ļå¯¼èĩ´": 4890,
      "æ¼Ķè®²": 4891,
      "åıįæĺł": 4892,
      "ä¸¹": 4893,
      "å¾Ģå¾Ģ": 4894,
      "å¤©ä½ĵ": 4895,
      "æ´ĭèĳ±": 4896,
      "è¹Ī": 4897,
      "ç¤¾ä¼ļçļĦ": 4898,
      "éĸĵ": 4899,
      "è¯¥æĸĩç«ł": 4900,
      "èµĦéĩĳ": 4901,
      "ä¾¿æį·": 4902,
      "çļĦæĥħèĬĤ": 4903,
      "çļĦæĦŁåıĹ": 4904,
      "è¯·ç»ŃåĨĻ": 4905,
      "ä¼ļå¯¹": 4906,
      "çļĦæĬĢå·§": 4907,
      "å¹³æĸ¹": 4908,
      "éŁµ": 4909,
      "æĴŀ": 4910,
      "è¡¬": 4911,
      "æīĢè¿°": 4912,
      "çī¹åĪ«æĺ¯": 4913,
      "ython": 4914,
      "æ¯ıå¹´": 4915,
      "äººå¿ĥ": 4916,
      "ä¸Ńç«ĭ": 4917,
      "ç²¾åĩĨ": 4918,
      "è¦ĨçĽĸ": 4919,
      "ç£ģ": 4920,
      "Ŀåįľ": 4921,
      "ä¸Ĭæľī": 4922,
      "å¹¶è¿Ľè¡Į": 4923,
      "çļĦè¿ĩç¨ĭä¸Ń": 4924,
      "æĭ¼åĨĻéĶĻè¯¯": 4925,
      "æľĪçĲĥ": 4926,
      "æ¼ł": 4927,
      "åı¯ä»¥å°Ŀè¯ķ": 4928,
      "ä¼Ļä¼´": 4929,
      "åħĪè¿Ľ": 4930,
      "è¿ĺæľīåħ¶ä»ĸ": 4931,
      "éĢļå¸¸æĺ¯": 4932,
      "æľīæľº": 4933,
      "äºĨä»Ģä¹Ī": 4934,
      "çĪ¸": 4935,
      "æ¯ıäºº": 4936,
      "æĴĴ": 4937,
      "çļĦæĶ¹": 4938,
      "åº¦çļĦ": 4939,
      "åŃ¦æľ¯": 4940,
      "å®ļåĪ¶": 4941,
      "æłĩè®°": 4942,
      "ç»ĻæĪĳä¸ĢäºĽ": 4943,
      "åĩĿ": 4944,
      "åħ±äº«": 4945,
      "è¿Ļéģĵ": 4946,
      "åĩºçĶŁ": 4947,
      "ç»ĻäºĪ": 4948,
      "åı¯ä»¥å¸®åĬ©æĪĳä»¬": 4949,
      "åªļ": 4950,
      "éĿŀæ³ķ": 4951,
      "è¿Ļåľº": 4952,
      "åĿĩè¡¡": 4953,
      "Python": 4954,
      "èĿ¶": 4955,
      "éŃħåĬĽ": 4956,
      "ç§ĳæĬĢçļĦ": 4957,
      "äººå·¥æĻºèĥ½åı¯ä»¥": 4958,
      "åħ¬å¹³": 4959,
      "èķ´": 4960,
      "çªģåĩº": 4961,
      "çļĦæĳĦåħ¥": 4962,
      "ä¼ļåľ¨": 4963,
      "åģ¶": 4964,
      "éĻ¤æ³ķ": 4965,
      "ç¶ĵ": 4966,
      "éĹľ": 4967,
      "æĸĩç«łåĨħå®¹": 4968,
      "äººå·¥æĻºèĥ½åľ¨åĮ»çĸĹé¢ĨåŁŁ": 4969,
      "éĿŀæ´²": 4970,
      "è¡¨çİ°åĩº": 4971,
      "ä¸Ńå¤®": 4972,
      "æ»´": 4973,
      "æĪĳå·²ç»ı": 4974,
      "çļĦæķĪæŀľ": 4975,
      "ç¾½": 4976,
      "ç½ĳä¸Ĭ": 4977,
      "åĴĮæĥħæĦŁ": 4978,
      "åĩ¯": 4979,
      "å°ıçİĭ": 4980,
      "æļĤ": 4981,
      "æĭĤ": 4982,
      "å¤ĸå¥Ĺ": 4983,
      "æīĭè¡¨": 4984,
      "åıĹæ¬¢è¿İçļĦ": 4985,
      "å¼ķäºº": 4986,
      "ä¼łç»ŁçļĦ": 4987,
      "å°ıçļĦ": 4988,
      "è¯·åĽŀçŃĶ": 4989,
      "ç»Īäºİ": 4990,
      "è¯·ç»ŃåĨĻä»ĸä»¬çļĦå¯¹è¯ĿåĨħå®¹": 4991,
      "åĪłéĻ¤": 4992,
      "ç¼ĺ": 4993,
      "åĩłå¹´": 4994,
      "æĺ¯äººç±»": 4995,
      "çļĦä»·æł¼": 4996,
      "çļĦç¤¾äº¤": 4997,
      "æĪĳå¸ĮæľĽ": 4998,
      "ä¿ĿçķĻ": 4999,
      "çĲĥåĳĺ": 5000,
      "èįĴ": 5001,
      "æĪĳå¯¹": 5002,
      "æııè¿°ä¸Ģä¸ª": 5003,
      "éļľç¢į": 5004,
      "çļĦæ¸ħ": 5005,
      "åģ¥åº·åĴĮ": 5006,
      "çļĦé¦ĸ": 5007,
      "çļĦæ¢¦æĥ³": 5008,
      "è¿ĶåĽŀ": 5009,
      "å¸Ĥä¸Ńå¿ĥ": 5010,
      "çģ«è½¦": 5011,
      "èĪŀè¹Ī": 5012,
      "ç»ĻæĤ¨": 5013,
      "è¡ĵ": 5014,
      "çļĦä¹¦": 5015,
      "ä¸įåĪ°": 5016,
      "å¤ıæĹ¥": 5017,
      "æ¶Īæģ¯": 5018,
      "çİ¯ä¿ĿæĦıè¯Ĩ": 5019,
      "éĢĹ": 5020,
      "å±±èĦī": 5021,
      "ç©·": 5022,
      "éĥ½èĥ½": 5023,
      "AIè¯Ńè¨Ģæ¨¡åŀĭ": 5024,
      "æĪĳè¦ģ": 5025,
      "è¿Ļä¹Ī": 5026,
      "æĽ´å¥½åľ°äºĨè§£": 5027,
      "çĮ«åĴª": 5028,
      "éĩįéĩı": 5029,
      "å¿łè¯ļ": 5030,
      "GPTæ¨¡åŀĭ": 5031,
      "æĪĳåĢĳ": 5032,
      "ç½©": 5033,
      "å¤ªç©ºæİ¢ç´¢": 5034,
      "éģĹäº§": 5035,
      "åįķä½į": 5036,
      "ä¸¤ä¸ªäºº": 5037,
      "æ³¨æĦıåĬĽ": 5038,
      "åİ»å¹´": 5039,
      "ä¸įå¥½": 5040,
      "åĪĨæĶ¯": 5041,
      "èıĩ": 5042,
      "æľºéģĩ": 5043,
      "çĥŃéĹ¨": 5044,
      "æ¼ı": 5045,
      "æĿĲè´¨": 5046,
      "ä¹Łåľ¨": 5047,
      "åĲ¸æĶ¶": 5048,
      "è°¨": 5049,
      "éĢıæĺİ": 5050,
      "åİŁå§ĭæĸĩæľ¬": 5051,
      "æµĭéĩı": 5052,
      "è´¸æĺĵ": 5053,
      "æĬķåħ¥": 5054,
      "é¥®é£Łä¹łæĥ¯": 5055,
      "å®¶æĹı": 5056,
      "æĢĸ": 5057,
      "çļĦçĬ¶": 5058,
      "æľįè£ħ": 5059,
      "éĶģ": 5060,
      "å¾ĭå¸Ī": 5061,
      "èŀįåĲĪ": 5062,
      "æĺ¯éĢļè¿ĩ": 5063,
      "çļĦå¥½å¤Ħ": 5064,
      "è¿Ļæĺ¯åĽłä¸º": 5065,
      "ä¸įåĨį": 5066,
      "åŃ©åŃĲä»¬": 5067,
      "è¯ĬæĸŃåĴĮæ²»çĸĹ": 5068,
      "æĸĩä»¶": 5069,
      "å¿ĥçĲĨåŃ¦": 5070,
      "æīĵéĢł": 5071,
      "å½¢çļĦ": 5072,
      "éĩĳå±ŀ": 5073,
      "äºļæ´²": 5074,
      "æľīéĻĲ": 5075,
      "æĶ¾æĿ¾èº«å¿ĥ": 5076,
      "ä½Ĩå®ĥ": 5077,
      "åĴĮå»ºè®®": 5078,
      "æµħ": 5079,
      "åıĮæĸ¹": 5080,
      "é¢Ī": 5081,
      "çĽ¸æ¯Ķ": 5082,
      "æľīäºĽäºº": 5083,
      "çľŁæĺ¯": 5084,
      "ä»¥æıĲé«ĺ": 5085,
      "è£Ĥ": 5086,
      "çļĦè¯Ŀé¢ĺ": 5087,
      "èĥ½å¤Łå¸®åĬ©": 5088,
      "æĦıè§ģ": 5089,
      "ä»¥ä¸ĭæĸĩç«ł": 5090,
      "æ½®æµģ": 5091,
      "åĪ¶åĵģ": 5092,
      "åĲĪå¹¶": 5093,
      "è¼": 5094,
      "ç¨į": 5095,
      "æıĲä¾ĽæĽ´": 5096,
      "å®īéĿĻ": 5097,
      "çº¢èī²çļĦ": 5098,
      "ç¨¿": 5099,
      "æ¯Ķåĸ»": 5100,
      "èĥ½ä¸įèĥ½": 5101,
      "ä¸įä»ħä»ħ": 5102,
      "ä»ģ": 5103,
      "çļĦç¾İä¸½": 5104,
      "å¹¶è§£éĩĬ": 5105,
      "æħİ": 5106,
      "ä¸Ģéģĵ": 5107,
      "å¤©æ°Ķé¢ĦæĬ¥": 5108,
      "90": 5109,
      "çĶ»éĿ¢": 5110,
      "æľĢå¤ļ": 5111,
      "èĦĨ": 5112,
      "åıįä¹īè¯į": 5113,
      "éĵº": 5114,
      "å¨ľ": 5115,
      "åĹ¯": 5116,
      "éĿ¢è¯ķ": 5117,
      "ç©¿è¶Ĭ": 5118,
      "å¤§åľ°": 5119,
      "æĸ¯åĿ¦": 5120,
      "Ġäººå·¥æĻºèĥ½": 5121,
      "æľ¬èº«": 5122,
      "åį¢": 5123,
      "æł¸å¿ĥ": 5124,
      "åĽŀåĪ°": 5125,
      "æİ¥è§¦": 5126,
      "èī³": 5127,
      "åĪ©æ¶¦": 5128,
      "çħİ": 5129,
      "åľĭ": 5130,
      "æķ°ä¸º": 5131,
      "éī": 5132,
      "å®ŀéĻħä¸Ĭ": 5133,
      "ä¸īè§Ĵ": 5134,
      "çĪ±çļĦ": 5135,
      "çĥŃéĩı": 5136,
      "ä¹Ĳè¶£": 5137,
      "é¹ħ": 5138,
      "éĺĲè¿°": 5139,
      "æĺ¯ç¾İåĽ½": 5140,
      "åħ¨åĽ½": 5141,
      "åĩĨç¡®çļĦ": 5142,
      "åĨłåĨĽ": 5143,
      "èīºæľ¯å®¶": 5144,
      "å°Ĭæķ¬çļĦ": 5145,
      "åľ°ä½į": 5146,
      "or": 5147,
      "çĶŁåĬ¨": 5148,
      "åįıä½ľ": 5149,
      "åİĨåı²ä¸Ĭ": 5150,
      "èµ·æºĲ": 5151,
      "ãĢĤâĢľ": 5152,
      "æĿ¥çļĦ": 5153,
      "å°¼äºļ": 5154,
      "åĨ²çªģ": 5155,
      "çİ»": 5156,
      "æ¶¯": 5157,
      "åįĹæŀģ": 5158,
      "æķ°æį®çļĦ": 5159,
      "ç²¾å½©": 5160,
      "èĩªçĦ¶çİ¯å¢ĥ": 5161,
      "éĿ©åĳ½": 5162,
      "éħįæĸĻ": 5163,
      "éªĳèĩªè¡Įè½¦": 5164,
      "çĶ³è¯·": 5165,
      "å¿ĥä¸Ń": 5166,
      "çī¹æĢ§": 5167,
      "çŃīæĬĢæľ¯": 5168,
      "éļ¾å¿ĺ": 5169,
      "æĸĩæ¡ĪçĶŁæĪĲ": 5170,
      "æ¬º": 5171,
      "è¯Ńä¹ī": 5172,
      "å¸¦æľī": 5173,
      "ä¸Ģå®ļçļĦ": 5174,
      "è½¬åĮĸä¸º": 5175,
      "æĿ¥å¸®åĬ©": 5176,
      "æ³ī": 5177,
      "è¡¨æł¼": 5178,
      "å¾ĪæĬ±æŃī": 5179,
      "çļĦæķĻèĤ²": 5180,
      "ä½ĵç³»": 5181,
      "å½ĵåľ°çļĦ": 5182,
      "æīĵç®Ĺ": 5183,
      "å¼Ģå±ķ": 5184,
      "å°ıåŀĭ": 5185,
      "åħ¬å¼ı": 5186,
      "ä½©": 5187,
      "æĹħç¨ĭ": 5188,
      "æ°ĳæĹı": 5189,
      "è¿Ļè¡¨æĺİ": 5190,
      "çļĦæĬķèµĦ": 5191,
      "æĹ¥å¸¸çĶŁæ´»ä¸Ń": 5192,
      "é¢Ħè®¢": 5193,
      "æĪĳæİ¨èįĲ": 5194,
      "æľīä»»ä½ķ": 5195,
      "åįĩé«ĺ": 5196,
      "ä»Ĭå¤©å¤©æ°Ķ": 5197,
      "çĸ²åĬ³": 5198,
      "åłĨ": 5199,
      "è°ľ": 5200,
      "å¾Īä¸įéĶĻ": 5201,
      "åīįæıĲ": 5202,
      "èĩªåĬ¨é©¾é©¶æ±½è½¦": 5203,
      "åľŁåľ°": 5204,
      "åĴĮäººç±»": 5205,
      "ç´§æĢ¥": 5206,
      "çĳ°": 5207,
      "æŃ¥è¡Į": 5208,
      "åľ¨æĪĳ": 5209,
      "åį³å°Ĩ": 5210,
      "å¼Ĥå¸¸": 5211,
      "éī´": 5212,
      "æĴĳ": 5213,
      "åħ¨çĲĥèĮĥåĽ´åĨħ": 5214,
      "äººéĻħ": 5215,
      "çĴĥ": 5216,
      "æľªæĿ¥åıĳå±ķ": 5217,
      "åĴĮæĹ¶éĹ´": 5218,
      "å¤¹": 5219,
      "2022": 5220,
      "æĪĳæŃ£åľ¨": 5221,
      "çº¦ä¸º": 5222,
      "åİŁåı¥": 5223,
      "ä¸Ģåı¥": 5224,
      "å¾Īæ£Ĵ": 5225,
      "èĬĤèĥ½": 5226,
      "å¯ĮåĲ«": 5227,
      "çĮľ": 5228,
      "åĽŀå¤į": 5229,
      "ä¼ļæľī": 5230,
      "éĻ¶": 5231,
      "æľĢéĩįè¦ģçļĦ": 5232,
      "è¡Ģåİĭ": 5233,
      "åĮĸçŁ³": 5234,
      "äº«çĶ¨": 5235,
      "èº«è¾¹": 5236,
      "ä¾£": 5237,
      "èµİ": 5238,
      "æĪĲåĬŁåľ°": 5239,
      "çļĦåħ³éĶ®è¯į": 5240,
      "çģµæĦŁ": 5241,
      "ä¸įå¾Ĺ": 5242,
      "åı¯ä»¥å¾ĹåĪ°": 5243,
      "æ¢°": 5244,
      "æħĪ": 5245,
      "è¡Ģç®¡": 5246,
      "ç®ĢçŁŃçļĦ": 5247,
      "ä»¥å¸®åĬ©": 5248,
      "æ¡Īä»¶": 5249,
      "åĽŀå½Ĵ": 5250,
      "ç©ĨæľĹ": 5251,
      "ä¼ĺç§ĢçļĦ": 5252,
      "çĽ¸åºĶçļĦ": 5253,
      "æľįåĬ¡åĳĺ": 5254,
      "ä»£æĽ¿": 5255,
      "æĺİåªļ": 5256,
      "æĪĳå»ºè®®": 5257,
      "è¿Ĳè¾ĵ": 5258,
      "èµ¶": 5259,
      "åŁºäºİä»¥ä¸Ĭ": 5260,
      "ä½ĵçİ°": 5261,
      "éģ¥": 5262,
      "ç©ĨæľĹçİĽ": 5263,
      "æĵħéķ¿": 5264,
      "æ´»åĬĽ": 5265,
      "çº¢æ¥¼": 5266,
      "å¤§è±¡": 5267,
      "è¿Ļä»½": 5268,
      "åĩºåıĳ": 5269,
      "åĩºçİ°äºĨ": 5270,
      "é¼»": 5271,
      "ä¸ŃåĽ½çļĦ": 5272,
      "æĻ´æľĹ": 5273,
      "æĪĳä¸įèĥ½": 5274,
      "åŃĻ": 5275,
      "500": 5276,
      "åĸľæ¬¢çļĦ": 5277,
      "çļĦæ°ĽåĽ´": 5278,
      "å¦Ĩ": 5279,
      "å¾Īå¿«": 5280,
      "æĦĪ": 5281,
      "æ³°åĿ¦": 5282,
      "ç¤ºä¾ĭ": 5283,
      "åı¯è¡Į": 5284,
      "ä¸ªæľĪ": 5285,
      "å¤±æľĽ": 5286,
      "éĢļä¿¡": 5287,
      "æİ¥ç§į": 5288,
      "éĢłæĪĲäºĨ": 5289,
      "æľīå®³": 5290,
      "å®¾è¯Ń": 5291,
      "å¤§çĨĬçĮ«": 5292,
      "çļĦç´": 5293,
      "åı¯ä»¥å¸®åĬ©ä½ł": 5294,
      "ä¸įèµ·": 5295,
      "çĽ¸åħ³ä¿¡æģ¯": 5296,
      "åı¯ä»¥ä¸º": 5297,
      "é¢ĨåŁŁçļĦåºĶçĶ¨": 5298,
      "å¯ĴåĨ·": 5299,
      "è¿Ļä¹Ł": 5300,
      "æıĲåīį": 5301,
      "éģµå¾ª": 5302,
      "å¥¥è¿Ĳä¼ļ": 5303,
      "æķ°çĻ¾": 5304,
      "çĶµè§Ĩåī§": 5305,
      "åľ°åĽ¾": 5306,
      "æ©ĺ": 5307,
      "æ¯ģ": 5308,
      "éĻĮ": 5309,
      "ç©ĨæľĹçİĽå³°": 5310,
      "åįĵ": 5311,
      "ç²¾åĬĽ": 5312,
      "æŁĲç§į": 5313,
      "æļĹç¤º": 5314,
      "çļĦçĹħ": 5315,
      "è«": 5316,
      "çļĦæ¤": 5317,
      "åıĹä¼¤": 5318,
      "åĴĮåģ¥åº·": 5319,
      "æĪĳä»¬å¿ħé¡»": 5320,
      "åĲĪæ³ķ": 5321,
      "åı¯èĥ½çļĦ": 5322,
      "åŃ¦ä¹łç¼ĸç¨ĭ": 5323,
      "å°¼åħĭåı·": 5324,
      "å¿ĺè®°": 5325,
      "ä¹ŁéĿŀå¸¸": 5326,
      "çĽĪ": 5327,
      "æķ°åŃĹåĮĸ": 5328,
      "æī«": 5329,
      "çļĦçģµ": 5330,
      "éķ¿åŁİ": 5331,
      "è´¾": 5332,
      "ä¼Ĺå¤ļ": 5333,
      "è¯Ĺäºº": 5334,
      "æĻ®åıĬ": 5335,
      "åı¯èĥ½éľĢè¦ģ": 5336,
      "çļĦæĻ¯çĤ¹": 5337,
      "æ¸ħæ¥ļ": 5338,
      "åİ¨æĪ¿": 5339,
      "æĸĳ": 5340,
      "è¯·æ±Ĥ": 5341,
      "å°¿çĹħ": 5342,
      "æ¯ıåĳ¨": 5343,
      "çĥŃçĪ±": 5344,
      "åĪ¶æĪĲ": 5345,
      "è°·æŃĮ": 5346,
      "æĸĩæ¡£": 5347,
      "åĬŀåħ¬å®¤": 5348,
      "æĪĳè¿ĺ": 5349,
      "åŃ¦èĢħ": 5350,
      "å¤·": 5351,
      "åĮºåĿĹéĵ¾æĬĢæľ¯": 5352,
      "çļĦæĢ»ç»ĵ": 5353,
      "äºĭé¡¹": 5354,
      "æľºåľº": 5355,
      "åİĨç¨ĭ": 5356,
      "80": 5357,
      "çļĦåĲįåŃĹ": 5358,
      "åħģ": 5359,
      "çŃīåĽłç´ł": 5360,
      "çļĦæĶ¶": 5361,
      "åľ¨éĤ£éĩĮ": 5362,
      "å¼ºå¤§çļĦ": 5363,
      "æ°§æ°Ķ": 5364,
      "è°¢è°¢ä½ł": 5365,
      "å¾®é£İ": 5366,
      "ä»¥ä¸ĭæĺ¯ä¸ĢäºĽ": 5367,
      "æĮĩåįĹ": 5368,
      "æĪĳæĥ³è¦ģ": 5369,
      "æ³°åĿ¦å°¼åħĭåı·": 5370,
      "é¥¼å¹²": 5371,
      "å¤§è§Ħæ¨¡": 5372,
      "å§Ĳ": 5373,
      "çİ»çĴĥ": 5374,
      "è¾Ľ": 5375,
      "çļĦçŁŃæĸĩ": 5376,
      "æĺ¯è°ģ": 5377,
      "éĩİçĶŁåĬ¨çī©": 5378,
      "åľ¨è¿Ļä¸ªåı¥åŃĲä¸Ń": 5379,
      "çº¢æ¥¼æ¢¦": 5380,
      "çĶ¨åĵģ": 5381,
      "çĲĨå¿µ": 5382,
      "éĽ¾": 5383,
      "çļĦæŃ¥éª¤": 5384,
      "çļĦåĲĮæĹ¶": 5385,
      "éĩİé¤Ĳ": 5386,
      "çļĦæĢ§èĥ½": 5387,
      "æµ´": 5388,
      "è§£çŃĶ": 5389,
      "åĸ·": 5390,
      "æĳĦæ°ı": 5391,
      "éĹ®çŃĶ": 5392,
      "å¤ļåħĥ": 5393,
      "çıłç©ĨæľĹçİĽå³°": 5394,
      "çļĦæİ¢": 5395,
      "çĶ³åħĭ": 5396,
      "æĿ°åħĭ": 5397,
      "æ³½": 5398,
      "èĤĸçĶ³åħĭ": 5399,
      "èĢģé¼ł": 5400,
      "çļĦæķĳ": 5401,
      "ä¸Ģç¯ĩåħ³äºİ": 5402,
      "è¿ľç¨ĭ": 5403,
      "ä¸ŃçļĦåħ³éĶ®è¯į": 5404,
      "åį±å®³": 5405,
      "Ġ+": 5406,
      "ä½Ĩåľ¨": 5407,
      "æ¶ĪéĻ¤": 5408,
      "è¾£æ¤Ĵ": 5409,
      "çĶµåĻ¨": 5410,
      "å·¥ä½ľæķĪçİĩ": 5411,
      "æľīçĶ¨": 5412,
      "ç»ĦæĪĲéĥ¨åĪĨ": 5413,
      "åĩºéĹ¨": 5414,
      "å¯º": 5415,
      "ä¼ı": 5416,
      "åĪ¶åº¦": 5417,
      "çļĦçī¹å¾ģ": 5418,
      "å¤Ħäºİ": 5419,
      "æĿ¥åĪ°": 5420,
      "èĥ½å¤Łåľ¨": 5421,
      "çĶ·å£«": 5422,
      "æ³Ħ": 5423,
      "åĩºåİ»": 5424,
      "br": 5425,
      "åĲİæŀľ": 5426,
      "ä¼ŀ": 5427,
      "çĸ¼": 5428,
      "åī²": 5429,
      "ä»ĸåĢĳ": 5430,
      "æķĻåŃ¦": 5431,
      "ç³ĸå°¿çĹħ": 5432,
      "ä¹Ļ": 5433,
      "å®ļä½į": 5434,
      "èħ°": 5435,
      "åĴĮè¡Įä¸º": 5436,
      "ä¸ºä¸»": 5437,
      "æ¸©é¦¨": 5438,
      "æĮĸæİĺ": 5439,
      "æĪĳæĺ¨å¤©": 5440,
      "æµĵéĥģ": 5441,
      "çļĦä½ľçĶ¨": 5442,
      "å¯¼èĩ´äºĨ": 5443,
      "ç¾İåĳ³çļĦ": 5444,
      "å®ĥåľ¨": 5445,
      "æľŁæľĽ": 5446,
      "æĶ¹æŃ£": 5447,
      "ä¸įå°ĳ": 5448,
      "éľį": 5449,
      "¡èĲĿåįľ": 5450,
      "èĥ¡èĲĿåįľ": 5451,
      "è°¢è°¢ä½łçļĦ": 5452,
      "æľĢè¿ĳçļĦ": 5453,
      "å¤ķ": 5454,
      "ç³Ĭ": 5455,
      "æĺ¨æĻļ": 5456,
      "åįıè°ĥ": 5457,
      "å¾Īå¤§çļĦ": 5458,
      "ç²¾ç¡®": 5459,
      "çĲĥéĺŁ": 5460,
      "èĢĮä¸į": 5461,
      "ä¸Ģèµ·åİ»": 5462,
      "è¿ĩäºİ": 5463,
      "å°ıæĺİçļĦ": 5464,
      "æĦŁæ¿Ģ": 5465,
      "ç»¼ä¸Ĭ": 5466,
      "äº¦": 5467,
      "åĮ»çĸĹè¡Įä¸ļ": 5468,
      "æ¢¨": 5469,
      "éĿ¢ä¸Ĭ": 5470,
      "æ°ĽåĽ´": 5471,
      "å·²çŁ¥": 5472,
      "åı¤è¯Ĺç»ŃåĨĻ": 5473,
      "æ³¥": 5474,
      "è¿Ļä¸ªäºº": 5475,
      "çłĶç©¶äººåĳĺ": 5476,
      "é¥®çĶ¨": 5477,
      "å¤º": 5478,
      "æĹłè®ºæĺ¯": 5479,
      "åįıåĬ©": 5480,
      "çľŁæŃ£çļĦ": 5481,
      "çĥĤ": 5482,
      "æ¥Ń": 5483,
      "åĸľåī§": 5484,
      "ï¼ģâĢĿ": 5485,
      "æĭĸ": 5486,
      "çĽĨ": 5487,
      "åĨ¬å¤©": 5488,
      "æĺĨ": 5489,
      "æ¡Īä¾ĭ": 5490,
      "æĹ±": 5491,
      "å¹³åĿĩåĪĨç»Ļ": 5492,
      "çİ°åľº": 5493,
      "åĲģ": 5494,
      "ä¸ĬäºĨ": 5495,
      "ç§ĭåŃ£": 5496,
      "çĭ®åŃĲ": 5497,
      "æĻ¶": 5498,
      "è®ĵ": 5499,
      "è¿ĻäºĽä¿¡æģ¯": 5500,
      "æ¦Ħ": 5501,
      "è¯·ä¸º": 5502,
      "æĦŁçŁ¥": 5503,
      "æ¿Ģåıĳ": 5504,
      "å§ĭç»Ī": 5505,
      "åĩıç¼ĵ": 5506,
      "æĪĳä»Ĭå¤©": 5507,
      "è¶ħçº§": 5508,
      "åıł": 5509,
      "ç·": 5510,
      "èĩ³åħ³éĩįè¦ģ": 5511,
      "åĬ£": 5512,
      "çĶŁæ´»çļĦ": 5513,
      "åģļæ³ķ": 5514,
      "Ħæ¦Ħ": 5515,
      "çļĦåĬĽéĩı": 5516,
      "çİ¯å¢ĥéĹ®é¢ĺ": 5517,
      "éĢīæĭ©ä¸Ģä¸ª": 5518,
      "éĤ¦": 5519,
      "ä¼ĺåħĪ": 5520,
      "æĥ§": 5521,
      "çļĦå£°éŁ³": 5522,
      "é¥±": 5523,
      "éĢĹåı·": 5524,
      "çĲĨæĥ³": 5525,
      "åĪĽéĢłåĬĽ": 5526,
      "æĪĳåİ»": 5527,
      "é¹¿": 5528,
      "çļĦèĬ±": 5529,
      "å¼¦": 5530,
      "ä½ľä¸ļ": 5531,
      "æįŁå¤±": 5532,
      "åĩºä¸Ģä¸ª": 5533,
      "ä¿ĿæĬ¤æĪĳä»¬çļĦ": 5534,
      "æ§": 5535,
      "å·¥ä½ľåĴĮ": 5536,
      "ä¸ĵæ³¨äºİ": 5537,
      "âĦ": 5538,
      "æĸĩç«łä¸ŃæıĲåĪ°": 5539,
      "ä¸įå¤Ł": 5540,
      "æŁľ": 5541,
      "åıĻ": 5542,
      "ä¹°äºĨä¸Ģ": 5543,
      "åįİçĽĽ": 5544,
      "å¯ĵ": 5545,
      "æĥħå¢ĥ": 5546,
      "çī©èģĶç½ĳ": 5547,
      "å¥¶éħª": 5548,
      "æĿ¨": 5549,
      "åļ": 5550,
      "æ»ļ": 5551,
      "è®¾è®¡ä¸Ģä¸ª": 5552,
      "å®¶åĽŃ": 5553,
      "æī©å±ķ": 5554,
      "åı¤åħ¸": 5555,
      "è¿ĲåĬ¨åĳĺ": 5556,
      "åĬłçĥŃ": 5557,
      "åĩºèī²çļĦ": 5558,
      "ä¹ĭæĹħ": 5559,
      "ä¸įèī¯": 5560,
      "æĶĢ": 5561,
      "åıĹåĪ°äºĨ": 5562,
      "æĻļé¤Ĳ": 5563,
      "éĢļè¿ĩå¯¹": 5564,
      "âĢ¦âĢ¦": 5565,
      "èģĮåľº": 5566,
      "èĤīç±»": 5567,
      "ç§ĳåŃ¦å®¶ä»¬": 5568,
      "åįİçĽĽé¡¿": 5569,
      "éªĹ": 5570,
      "æķĻå¸Ī": 5571,
      "ç®ĢåĮĸ": 5572,
      "çĿ¡è§ī": 5573,
      "å¦»": 5574,
      "çļĦçĮ«": 5575,
      "éĢĨ": 5576,
      "éĶĻåĪ«": 5577,
      "ä¸įç¡®å®ļ": 5578,
      "å¤įæĿĤçļĦ": 5579,
      "çıįæĥľ": 5580,
      "éĶĻåĪ«åŃĹ": 5581,
      "è¿Ļä¸ªæķħäºĭ": 5582,
      "æĸ°æĬĢæľ¯": 5583,
      "è´¢å¯Į": 5584,
      "æĺ¯ä¸Ģå®¶": 5585,
      "åĩºçļĦ": 5586,
      "éĻĮçĶŁ": 5587,
      "çĩ¥": 5588,
      "âĦĥ": 5589,
      "å°ĸ": 5590,
      "ç»Ļäºº": 5591,
      "çĭ¼": 5592,
      "æĸľ": 5593,
      "çĶ¨éĢĶ": 5594,
      "çĲĨçĶ±": 5595,
      "çĽ¸å½ĵ": 5596,
      "é¡Į": 5597,
      "ä¸ĭçļĦ": 5598,
      "è¯·æł¹æį®": 5599,
      "ç«Ł": 5600,
      "æ¼«æŃ¥": 5601,
      "åĿĲåľ¨": 5602,
      "ä»ĸä»¬ä¹ĭéĹ´": 5603,
      "åĭĥ": 5604,
      "Ġ4": 5605,
      "éŃĤ": 5606,
      "æĶ¹åıĺäºĨ": 5607,
      "è®°å¾Ĺ": 5608,
      "ç¾İæĻ¯": 5609,
      "å±ıå¹ķ": 5610,
      "æĸ°éĹ»æłĩé¢ĺ": 5611,
      "å¼ºåº¦": 5612,
      "èŃ¦æĸ¹": 5613,
      "æķĮ": 5614,
      "è¿Ī": 5615,
      "æĺİäº®": 5616,
      "åı¯ä»¥çĶ¨äºİ": 5617,
      "å¾Īå¤ļäºº": 5618,
      "ä¸¤äºº": 5619,
      "æģĲæĢĸ": 5620,
      "éĹ»åĲį": 5621,
      "æııåĨĻ": 5622,
      "ä»¥åħ¶": 5623,
      "ä¸ĸçķĮåĲĦåľ°": 5624,
      "ä¸įåŃĺåľ¨": 5625,
      "it": 5626,
      "çİ°ä»£ç¤¾ä¼ļ": 5627,
      "ĠÃ·": 5628,
      "å¦Ĥä½ķåĪ¶ä½ľ": 5629,
      "åıĤæķ°": 5630,
      "åĲ¬éŁ³ä¹Ĳ": 5631,
      "æĺİçĻ½äºĨ": 5632,
      "æ³ª": 5633,
      "ĸæģ¯": 5634,
      "ä¿Ħ": 5635,
      "åģıè§ģ": 5636,
      "æľīæ°§": 5637,
      "è³ĩ": 5638,
      "æĸĩæľ¬è¿Ľè¡Į": 5639,
      "åľ°åĲį": 5640,
      "çļĦçĭ¬": 5641,
      "çļĦç¼ĸç¨ĭ": 5642,
      "å£³": 5643,
      "éĢļå¸¸ä¼ļ": 5644,
      "èĨľ": 5645,
      "åĲĦä¸ªé¢ĨåŁŁ": 5646,
      "æ¡Ĩ": 5647,
      "èħ¾": 5648,
      "å±ħä½ı": 5649,
      "å¼ķå¯¼": 5650,
      "æ²Ļåıĳ": 5651,
      "çļĦæ¡": 5652,
      "äººæĢ§": 5653,
      "åĴĮçĲĨè§£": 5654,
      "æıĲé«ĺäºĨ": 5655,
      "èĸ¯": 5656,
      "éĶĻè¿ĩ": 5657,
      "å·²æĪĲä¸º": 5658,
      "æł¹æį®èĩªå·±çļĦ": 5659,
      "æ£ĭ": 5660,
      "çŃĽ": 5661,
      "å»ºè®®åĲĹ": 5662,
      "åİŁåŃĲ": 5663,
      "åł´": 5664,
      "é£İæļ´": 5665,
      "æĿī": 5666,
      "çĭĹçļĦ": 5667,
      "è¡Įé©¶": 5668,
      "èī°": 5669,
      "çİ«": 5670,
      "åĳ¼åĲģ": 5671,
      "ãĢĤ\"<|": 5672,
      "çļĦæ²ŁéĢļ": 5673,
      "çļĦåĳ³éģĵ": 5674,
      "æ¶¨": 5675,
      "å¹²åĩĢ": 5676,
      "å°ĩ": 5677,
      "è°ĭ": 5678,
      "äºļé©¬": 5679,
      "çĤİçĥŃ": 5680,
      "ç¢ĳ": 5681,
      "å¾Īé«ĺåħ´": 5682,
      "è¡¨è¿°": 5683,
      "åĴĮä¸ªäºº": 5684,
      "å¹¿æ³ĽçļĦ": 5685,
      "åºĻ": 5686,
      "ç²®": 5687,
      "èĬĿå£«": 5688,
      "å¸¦çĿĢ": 5689,
      "åħ³éĹŃ": 5690,
      "çŃīå¤ļä¸ª": 5691,
      "æĽ´æĶ¹": 5692,
      "æİ¨è¿Ľ": 5693,
      "æŁ¿": 5694,
      "ä»İä¸Ń": 5695,
      "æĭĽèģĺ": 5696,
      "æ¯ķä¸ļ": 5697,
      "æĹ¥çĽĬ": 5698,
      "æ¿ĢçĥĪ": 5699,
      "æķ°æį®åĪĨæŀĲ": 5700,
      "æ¸©å®¤æ°Ķä½ĵæİĴæĶ¾": 5701,
      "æĪ¿å±ĭ": 5702,
      "è¿ĻäºĽéĥ½æĺ¯": 5703,
      "æĹ©æľŁ": 5704,
      "çļĦæ²Ļ": 5705,
      "ä½Ĩä¸į": 5706,
      "æĮ¯": 5707,
      "æĸĩè¨Ģ": 5708,
      "æľīæĦıä¹ī": 5709,
      "çļĦæĻ®": 5710,
      "ä½łæĺ¯": 5711,
      "ä¼Ĳ": 5712,
      "èĥľåľ°": 5713,
      "____": 5714,
      "å±Ĥæ¬¡": 5715,
      "ä¸Ģèĩ´": 5716,
      "èĺĳ": 5717,
      "åħģè®¸": 5718,
      "éĩıåŃĲåĬĽåŃ¦": 5719,
      "åĪĳ": 5720,
      "éĻªä¼´": 5721,
      "å®¢æľį": 5722,
      "è¿Ļæ®µè¯Ŀ": 5723,
      "æĪĳä»¬åľ¨": 5724,
      "æ¿ĢåĬ±": 5725,
      "çīĽä»Ķ": 5726,
      "çļĦçĬ¶æĢģ": 5727,
      "æĺĤ": 5728,
      "å¤§å¤§": 5729,
      "å©´": 5730,
      "æīİ": 5731,
      "çļĦä¾ĭåŃĲ": 5732,
      "æľĪäº®": 5733,
      "èĭ¹æŀľåħ¬åı¸": 5734,
      "ç¿ħ": 5735,
      "äºļé©¬éĢĬ": 5736,
      "at": 5737,
      "æĺ¯ä¸ĸçķĮä¸ĬæľĢ": 5738,
      "ç¥ĸ": 5739,
      "æĹ©æĻ¨": 5740,
      "æ´Ĵ": 5741,
      "æĥĳ": 5742,
      "ï¼ħ": 5743,
      "äººå·¥æĻºèĥ½æĬĢæľ¯åľ¨": 5744,
      "å¾Į": 5745,
      "çļĦæķ°åŃĹ": 5746,
      "æĺ¾å¾Ĺ": 5747,
      "å®īåħ¨åĴĮ": 5748,
      "åľ°çĲĨ": 5749,
      "æºª": 5750,
      "æľīæĹ¶åĢĻ": 5751,
      "é«ĺè´¨éĩı": 5752,
      "èĺĳèıĩ": 5753,
      "å»ºçŃĳçī©": 5754,
      "åĲĳéĩı": 5755,
      "èĥĥ": 5756,
      "åıĳéĢģ": 5757,
      "åŀĤ": 5758,
      "æĪĺæĸĹ": 5759,
      "ä¸ĢäºĽäºº": 5760,
      "æĸĩè¨Ģæĸĩ": 5761,
      "ä¿Ŀæļĸ": 5762,
      "åľ¨åĵªéĩĮ": 5763,
      "ä½Ĩä¹Ł": 5764,
      "æĨ": 5765,
      "æĢ»ä½ĵ": 5766,
      "é£İåħī": 5767,
      "ç¿Ķ": 5768,
      "çļĦå½¢å¼ı": 5769,
      "è¯Ńå¢ĥ": 5770,
      "ä¿®å¤į": 5771,
      "æ¾³": 5772,
      "åģ¥èº«æĪ¿": 5773,
      "éĿ¢ä¸´çĿĢ": 5774,
      "è¯¥åı¥åŃĲ": 5775,
      "æ©Ħæ¦Ħ": 5776,
      "çŃīäºİ": 5777,
      "å¹¶è¾ĵåĩº": 5778,
      "æķ°æį®åĴĮ": 5779,
      "çļĦæķĳèµİ": 5780,
      "æĬĢæľ¯çļĦåıĳå±ķ": 5781,
      "å¸ĤåľºèĲ¥éĶĢ": 5782,
      "æŀģç«¯å¤©æ°Ķ": 5783,
      "åľ¨ç»Ļå®ļçļĦ": 5784,
      "å²ģçļĦ": 5785,
      "é½¿": 5786,
      "èĵĿèī²çļĦ": 5787,
      "çİ«çĳ°": 5788,
      "æĪĳä»¬ä¼ļ": 5789,
      "çļĦæŃĮæĽ²": 5790,
      "å¤ĩåıĹ": 5791,
      "åĳĪçİ°åĩº": 5792,
      "èĿ´": 5793,
      "åĽ¾æ¡Ī": 5794,
      "æķħäºĭæĥħèĬĤ": 5795,
      "èĿ´èĿ¶": 5796,
      "æĶ¿æ²»": 5797,
      "è®©è®¡ç®Ĺæľº": 5798,
      "æĪĳä»¬åı¯ä»¥çĶ¨": 5799,
      "åĩºçīĪ": 5800,
      "å²Ĺ": 5801,
      "åĴĮçİ¯å¢ĥ": 5802,
      "æĪĺçķ¥": 5803,
      "äººå·¥æĻºèĥ½åĴĮ": 5804,
      "éĢļçŁ¥": 5805,
      "çļĦåľºæĻ¯": 5806,
      "æł¹æį®æłĩé¢ĺ": 5807,
      "ç¢³æİĴæĶ¾": 5808,
      "äºīè®®": 5809,
      "éĤ»": 5810,
      "åĪĨåĪ«æĺ¯": 5811,
      "ä¹Łèĥ½": 5812,
      "\"ãĢĤ": 5813,
      "ç«ĭåį³": 5814,
      "ç»ıèĲ¥": 5815,
      "è®¾å®ļ": 5816,
      "çļĦåĲįç§°": 5817,
      "çĪ¶æ¯į": 5818,
      "åįıè®®": 5819,
      "éĺ¿çĶĺ": 5820,
      "å¿«éĢŁåıĳå±ķ": 5821,
      "çĺ¦": 5822,
      "ç»¼ä¸ĬæīĢè¿°": 5823,
      "ç»³": 5824,
      "çĭ±": 5825,
      "åıĳè¡¨": 5826,
      "è¤": 5827,
      "åĲįåı«": 5828,
      "åºŁå¼ĥ": 5829,
      "æıŃç¤º": 5830,
      "ç§Ĵ": 5831,
      "èĥĸ": 5832,
      "éĶħä¸Ń": 5833,
      "å»ºéĢł": 5834,
      "ä¸Ģæ®µå¯¹è¯Ŀ": 5835,
      "ä¸ªä½ĵ": 5836,
      "æ¢ģ": 5837,
      "çĤī": 5838,
      "çļĦåĴĸåķ¡": 5839,
      "æ°¢": 5840,
      "æķ°æį®ä¸Ń": 5841,
      "åıĳçİ°äºĨ": 5842,
      "å¼ºåĮĸ": 5843,
      "éĢĶå¾Ħ": 5844,
      "ä½Ĩæĺ¯æĪĳ": 5845,
      "çļĦæĬ¥": 5846,
      "æĪĸç¼º": 5847,
      "å¤ªå¤ļ": 5848,
      "å¥½åĥı": 5849,
      "ç´łé£Ł": 5850,
      "åĲİçļĦåı¥åŃĲ": 5851,
      "å®ŀä½ĵè¯ĨåĪ«": 5852,
      "ç§ĳå¹»å°ıè¯´": 5853,
      "æĪª": 5854,
      "èĤĸçĶ³åħĭçļĦæķĳèµİ": 5855,
      "ä¸Ģåħ±": 5856,
      "æĪĲçĨŁ": 5857,
      "çŁ¶": 5858,
      "çļĦæ°ĶåĢĻ": 5859,
      "æĽ¿æį¢ä¸º": 5860,
      "æĽ´æŃ£": 5861,
      "æĭĴ": 5862,
      "æĴ°åĨĻ": 5863,
      "æĪĳåĴĮ": 5864,
      "ä¼ĺç¾İ": 5865,
      "å½»": 5866,
      "çĶµåŃĲåķĨåĬ¡": 5867,
      "å¹¼": 5868,
      "å¾¡": 5869,
      "æ²ĥ": 5870,
      "æ©Ł": 5871,
      "çİ¯ä¿ĿçļĦ": 5872,
      "çļĦæķ°åŃ¦": 5873,
      "èĥ¶": 5874,
      "åĴĮç®¡çĲĨ": 5875,
      "èħĬ": 5876,
      "ç»ĻæĪĳæİ¨èįĲ": 5877,
      "åĬłå·¥": 5878,
      "æĵ¦": 5879,
      "æĦıå¤ĸ": 5880,
      "åľ°åĿĢ": 5881,
      "å¤±ä¸ļ": 5882,
      "è±ĨèħĲ": 5883,
      "éŀĭåŃĲ": 5884,
      "çĶ¢": 5885,
      "å½¢æĢģ": 5886,
      "éĽķ": 5887,
      "çļĦåħ³éĶ®ä¿¡æģ¯": 5888,
      "å¼ķèµ·äºĨ": 5889,
      "æĳĦæ°ıåº¦": 5890,
      "äºĳè®¡ç®Ĺ": 5891,
      "ä¸Ģä¸ĭè¿Ļç¯ĩæĸĩç«ł": 5892,
      "æĸ°åĨł": 5893,
      "è¾ĥä¸º": 5894,
      "äººåĴĮ": 5895,
      "éĿŀå¸¸éĢĤåĲĪ": 5896,
      "å®¶éĩĮ": 5897,
      "æĸĩèīº": 5898,
      "è®©äººæĦŁåĪ°": 5899,
      "äººæķ°": 5900,
      "åŀ«": 5901,
      "æĪĸæĺ¯": 5902,
      "çī¹å®ļçļĦ": 5903,
      "æĦģ": 5904,
      "éĢıæ°Ķ": 5905,
      "è¯·ä»İ": 5906,
      "è¯·ä¸ºæĪĳ": 5907,
      "çĶµå½±åĲįç§°": 5908,
      "çĽĸèĮ¨": 5909,
      "åıĺéĩı": 5910,
      "çļĦä¸įåĲĮ": 5911,
      "å¿ĥèĦıçĹħ": 5912,
      "ob": 5913,
      "åıĺå¾Ĺè¶ĬæĿ¥è¶Ĭ": 5914,
      "çļĦæİĴæĶ¾": 5915,
      "æģ°": 5916,
      "çĥ¤ç®±": 5917,
      "éĢĤçĶ¨äºİ": 5918,
      "èħ¹": 5919,
      "åŁºäºİä»¥ä¸ĭ": 5920,
      "å§ľ": 5921,
      "èµ°äºĨ": 5922,
      "çļĦæĶ¿": 5923,
      "é«ĺçļĦå±±å³°": 5924,
      "å°ıæĺİåĴĮå°ıçº¢": 5925,
      "èĻ¾": 5926,
      "åı¯ä»¥ä»İ": 5927,
      "æİ¥è¿ĳ": 5928,
      "æĸ°æ¬¾": 5929,
      "æĪĲä¸ºä¸Ģä¸ª": 5930,
      "199": 5931,
      "ä¼ģä¸ļå®¶": 5932,
      "--": 5933,
      "åŁºäºİä»¥ä¸Ĭè¿Ļæ®µæĸĩæľ¬": 5934,
      "æ¯ıä¸ªäººéĥ½åºĶè¯¥": 5935,
      "ä¹ĭä¸Ń": 5936,
      "éĶ»çĤ¼èº«ä½ĵ": 5937,
      "çļĦè¡¨çİ°": 5938,
      "åĿļå®ļ": 5939,
      "è¿Ļæĺ¯ä¸Ģéĥ¨": 5940,
      "æķ°æį®è¿Ľè¡Į": 5941,
      "æ²¡æľīä»»ä½ķ": 5942,
      "æº¯": 5943,
      "åĮ»åŃ¦å½±åĥı": 5944,
      "ä¸ĭåĳ¨": 5945,
      "åĩıå°ĳä½¿çĶ¨": 5946,
      "åĩıèĤ¥": 5947,
      "çļĦä¸ľè¥¿": 5948,
      "äººä»¬å¯¹": 5949,
      "åĩłç§į": 5950,
      "éĺ³åħīæĺİåªļ": 5951,
      "çħ§é¡¾": 5952,
      "çļĦæłĳ": 5953,
      "éĶĻè¯¯è¿Ľè¡Į": 5954,
      "çĶľçĤ¹": 5955,
      "Ġä½ł": 5956,
      "çļĦæ¤į": 5957,
      "å¿ĹæĦ¿": 5958,
      "åĽºå®ļ": 5959,
      "çļĦä¸»è¦ģè§ĤçĤ¹æĺ¯": 5960,
      "åįļå®¢": 5961,
      "éŁ§": 5962,
      "ç®ĢåİĨ": 5963,
      "æ·±è¿ľçļĦå½±åĵį": 5964,
      "ä¸įåı¯æĪĸç¼º": 5965,
      "å¦ĤæŀľæĪĳä»¬": 5966,
      "è¢«è§Ĩä¸º": 5967,
      "çļĦæ³¨": 5968,
      "åħ´è¶£çĪ±å¥½": 5969,
      "è¿ĳæľŁ": 5970,
      "è¯¦ç»ĨçļĦ": 5971,
      "åĴĮç»ıæµİ": 5972,
      "åĳ¨æľŁ": 5973,
      "æĮĩä»¤": 5974,
      "åĨħçļĦ": 5975,
      "ç»Ļå®ļä¸Ģç¯ĩæĸĩç«ł": 5976,
      "ç¾İå¦Ļ": 5977,
      "è¸ı": 5978,
      "çĶŁæĢģçİ¯å¢ĥ": 5979,
      "ä¹Łå°Ĩ": 5980,
      "åĴĮåŃ¦ä¹ł": 5981,
      "çļĦäººçī©": 5982,
      "å¡ĳæĸĻè¢ĭ": 5983,
      "æĢ§æł¼": 5984,
      "èĶ¬èıľåĴĮ": 5985,
      "ðŁ": 5986,
      "çļĦæľĢä½³": 5987,
      "è¡¥åħħ": 5988,
      "çªģçł´": 5989,
      "æĿ¥åĩıå°ĳ": 5990,
      "åħ½": 5991,
      "è¯·å¸®æĪĳ": 5992,
      "è¯Ī": 5993,
      "åľ¨åħ¬åĽŃéĩĮ": 5994,
      "åıĸæ¶Ī": 5995,
      "èªīä¸º": 5996,
      "æľ¬è´¨": 5997,
      "åĪĽéĢłä¸Ģä¸ª": 5998,
      "èĥ¡æ¤Ĵ": 5999,
      "èĢĥèĻĳåĪ°": 6000,
      "ä½łèĥ½åĳĬè¯īæĪĳ": 6001,
      "åİĺç±³": 6002,
      "å¾®ç¬ĳ": 6003,
      "ç®¡çĲĨåĴĮ": 6004,
      "åĮħå®¹": 6005,
      "é¸ŁåĦ¿": 6006,
      "ç³Ł": 6007,
      "ä»¥åĲİ": 6008,
      "è§Ĵèī²ä»ĭç»į": 6009,
      "çļĦç¤¼": 6010,
      "ç¬¬ä¸Ģæ¬¡": 6011,
      "åĴĮæĬĢèĥ½": 6012,
      "èĨĢ": 6013,
      "çĶµå½±è¯Ħè®º": 6014,
      "ç§ĳæĬĢåħ¬åı¸": 6015,
      "åľŁè±Ĩ": 6016,
      "ä»¥åīį": 6017,
      "å¤ļæ¬¡": 6018,
      "çļĦæ³ķå¾ĭ": 6019,
      "å¥³åŃĲ": 6020,
      "åĬłå¯Ĩ": 6021,
      "çļĦæ¸©åº¦": 6022,
      "åĩłä¹İ": 6023,
      "åı¯ä»¥æıĲä¾Ľ": 6024,
      "æĤłä¹ħ": 6025,
      "çī©æµģ": 6026,
      "æĿīçŁ¶": 6027,
      "éĻĪè¿°åı¥": 6028,
      "æľ¨æĺŁ": 6029,
      "çį": 6030,
      "çļĦåŃ£èĬĤ": 6031,
      "åīĳ": 6032,
      "èĥĨ": 6033,
      "å¯¹å¾ħ": 6034,
      "å¨ģå¤·": 6035,
      "è¿Ļä¸ªè¯į": 6036,
      "èĪį": 6037,
      "è¾ĥé«ĺ": 6038,
      "å¤ıå¨ģå¤·": 6039,
      "åı¯ä»¥å¸®åĬ©åĮ»çĶŁ": 6040,
      "ä¼į": 6041,
      "æ¡ĮåŃĲ": 6042,
      "çļĦæµ·æ»©": 6043,
      "å®½æĿ¾": 6044,
      "ä»Ķç»Ĩ": 6045,
      "ä¼ĺéĽħ": 6046,
      "çļĦç¨ĭåºı": 6047,
      "ç»ŃåĨĻåı¤è¯Ĺ": 6048,
      "é©¬æĭī": 6049,
      "å»ºç«ĭä¸Ģä¸ª": 6050,
      "çļĦä»£è¡¨": 6051,
      "çļĦæīĭæľº": 6052,
      "å¸ĿåĽ½": 6053,
      "éľĢè¦ģè¿Ľè¡Į": 6054,
      "æľ¯è¯Ń": 6055,
      "å¹¶ä½¿çĶ¨": 6056,
      "æĪ¿åŃĲ": 6057,
      "éĴ¢çĲ´": 6058,
      "çİĭæĺŁ": 6059,
      "ä¸Ģå°ģ": 6060,
      "ç§ĺå¯Ĩ": 6061,
      "çļĦç¬ĳ": 6062,
      "åĿļæŀľ": 6063,
      "éĥ½å¾Ī": 6064,
      "åķı": 6065,
      "å¤ļå½©": 6066,
      "å¹²æī°": 6067,
      "ä½łåı¯ä»¥å°Ŀè¯ķ": 6068,
      "å·¾": 6069,
      "åĴĮæµ·": 6070,
      "çļĦå¸®åĬ©": 6071,
      "ä¸ºæĪĳä»¬": 6072,
      "ä¸ĭä¸Ģä¸ª": 6073,
      "æ¯ıä¸Ģä¸ª": 6074,
      "åĬłåī§": 6075,
      "å¤ĸè§Ĥ": 6076,
      "åĴĮèĶ¬èıľ": 6077,
      "å®³æĢķ": 6078,
      "å¹½é»ĺ": 6079,
      "ä¸Ģæ¬¡æĢ§": 6080,
      "çīĩæ®µ": 6081,
      "åĻª": 6082,
      "åıĸåĩº": 6083,
      "æ¸ł": 6084,
      "æĭĵå±ķ": 6085,
      "å«Įçĸĳ": 6086,
      "æĹħæ¸¸æĻ¯çĤ¹": 6087,
      "åĮħåĲ«äºĨ": 6088,
      "éĩįè¦ģçļĦä½ľçĶ¨": 6089,
      "ä¸įéĶĻçļĦéĢīæĭ©": 6090,
      "åĩıåİ»": 6091,
      "åİŁæĿ¥": 6092,
      "ç¿ł": 6093,
      "åī©ä½Ļ": 6094,
      "å¤ļå¹´": 6095,
      "åĳĢ": 6096,
      "è¿ĻäºĽæĬĢæľ¯": 6097,
      "èĪªç©º": 6098,
      "å½ĵæĪĳ": 6099,
      "æ¯ıä¸ªäººçļĦ": 6100,
      "åĸĦèī¯": 6101,
      "çĸı": 6102,
      "æ¡¶": 6103,
      "ä¸įçĶ¨": 6104,
      "ä¸»åĬ¨": 6105,
      "æ¯Ķäºļ": 6106,
      "æ¯Ķå¦Ĥè¯´": 6107,
      "æĢ§è´¨": 6108,
      "åı¯è¯»": 6109,
      "ä¿ĿæĮģèº«ä½ĵåģ¥åº·": 6110,
      "åĺ´": 6111,
      "çĶ¨æĪ·çļĦ": 6112,
      "å¹¿éĺĶ": 6113,
      "å¯Ĩåº¦": 6114,
      "èĤ©": 6115,
      "æĮĩæłĩ": 6116,
      "åľ°éĵģ": 6117,
      "æĺŁæĺŁ": 6118,
      "è¿ģ": 6119,
      "å½ĵæĪĳä»¬": 6120,
      "ç»Ĩèħ»": 6121,
      "åĮĹäº¬å¸Ĥ": 6122,
      "åħ¨éĥ¨": 6123,
      "è¿Ŀåıį": 6124,
      "æľ¬å°ıè¯´": 6125,
      "çİ°çĬ¶": 6126,
      "å±ķçİ°äºĨ": 6127,
      "å¯Ħ": 6128,
      "è®©å®ĥ": 6129,
      "æĬĳéĥģ": 6130,
      "çļĦç©ºæ°Ķ": 6131,
      "ç»µ": 6132,
      "åĨ°å·Ŀ": 6133,
      "éļĨ": 6134,
      "Ġ(": 6135,
      "oo": 6136,
      "éģĹä¼ł": 6137,
      "æĮº": 6138,
      "å¤§æĪĺ": 6139,
      "åĩĨå¤ĩå¥½": 6140,
      "é¢ĳçİĩ": 6141,
      "ä¸Ĭæĺł": 6142,
      "ç¥ŀå¥ĩ": 6143,
      "æľīæ°§è¿ĲåĬ¨": 6144,
      "çļĦç¡": 6145,
      "æĢİä¹Īåģļ": 6146,
      "çļĦçł´": 6147,
      "ä»Ĭå¤©çļĦå¤©æ°Ķ": 6148,
      "è¿Ļä¸¤": 6149,
      "æĭħä»»": 6150,
      "æ¸´": 6151,
      "çĸ¾çĹħçļĦ": 6152,
      "çļĦæĢĿèĢĥ": 6153,
      "å§Ĩæĸ¯": 6154,
      "å®īåħ¨æĢ§": 6155,
      "åĪ¸": 6156,
      "ĠAI": 6157,
      "ä¸ĸçķĮä¸Ĭ": 6158,
      "èĮ«": 6159,
      "çļĦæĢĿç»´": 6160,
      "è¿ĺè¦ģ": 6161,
      "çĽ¸çŃī": 6162,
      "è¯¦ç»ĨåĽŀçŃĶ": 6163,
      "åŀĥåľ¾éĤ®ä»¶": 6164,
      "å±ķç¤ºäºĨ": 6165,
      "åĨĮ": 6166,
      "ä»£è°¢": 6167,
      "æ´ĽæĿīçŁ¶": 6168,
      "ç½²": 6169,
      "çļĦéĢŁåº¦": 6170,
      "Ja": 6171,
      "æ¶Į": 6172,
      "çĲ³": 6173,
      "çļĦæ°Ķæģ¯": 6174,
      "æĸĩæľ¬ä¸ŃçļĦåħ³éĶ®è¯į": 6175,
      "éĢīæĭ©éĢĤåĲĪ": 6176,
      "è¡°": 6177,
      "æĤ²ä¼¤": 6178,
      "æģĴæĺŁ": 6179,
      "æłĳæľ¨": 6180,
      "èı²å°Ķ": 6181,
      "æĹĹ": 6182,
      "è¯·æĢ»ç»ĵ": 6183,
      "éĹ®é¢ĺåĴĮ": 6184,
      "ç´łè´¨": 6185,
      "çļĦåħī": 6186,
      "å¿į": 6187,
      "çĨŁæĤī": 6188,
      "è¢«èªīä¸º": 6189,
      "éŁ¿": 6190,
      "ä¹ĺåĿĲ": 6191,
      "å©ļç¤¼": 6192,
      "ç¿Ĵ": 6193,
      "å®ļå¾ĭ": 6194,
      "Ġä½¿çĶ¨": 6195,
      "è®¤åı¯": 6196,
      "åį±æľº": 6197,
      "çļĦä¸Ģæ®µå¯¹è¯Ŀ": 6198,
      "å®´": 6199,
      "çļĦèĭ¹æŀľ": 6200,
      "è¡¬è¡«": 6201,
      "æ°Ľ": 6202,
      "ä¸ĬçıŃ": 6203,
      "é»Ľ": 6204,
      "çļĦèĩªçĦ¶": 6205,
      "éĿ¢æĿ¡": 6206,
      "æľĢéĢĤåĲĪ": 6207,
      "äººä»¬åľ¨": 6208,
      "70": 6209,
      "å¹³éĿĻ": 6210,
      "å®ĮæĪĲä»»åĬ¡": 6211,
      "çļĦé¢ĨåŁŁ": 6212,
      "è¿Ļæł·åı¯ä»¥": 6213,
      "çļĦåĬŁèĥ½": 6214,
      "çļĦæ¯ĶèµĽ": 6215,
      "å¦Ĥä»Ĭ": 6216,
      "ä»ĩ": 6217,
      "ä¸ĭéĿ¢çļĦæĸĩæľ¬": 6218,
      "ä»¥ä¸ĭåĩłä¸ª": 6219,
      "èĪĴéĢĤçļĦ": 6220,
      "æĺ¯ä¸ºäºĨ": 6221,
      "åľ°çĲĥä¸Ĭ": 6222,
      "çĵ¦": 6223,
      "æĸĩæľ¬åĪĨç±»": 6224,
      "åħ¶ä»ĸäºº": 6225,
      "åģļä¸ĢäºĽ": 6226,
      "çļĦå®ļä¹ī": 6227,
      "åĮ¹éħį": 6228,
      "è´·": 6229,
      "èķ´åĲ«": 6230,
      "åĩĮ": 6231,
      "å®ĥä»¬åľ¨": 6232,
      "DNA": 6233,
      "éľĢè¦ģåľ¨": 6234,
      "æī¿æĭħ": 6235,
      "åĩºçİ°åľ¨": 6236,
      "å°±èĥ½": 6237,
      "ä¹Ĳè§Ĥ": 6238,
      "è¢Ń": 6239,
      "çļĦç¾İæĻ¯": 6240,
      "éĵģå¡Ķ": 6241,
      "æ·±æ·±": 6242,
      "ç¼ĸç¨ĭè¯Ńè¨Ģ": 6243,
      "ç»ĺçĶ»": 6244,
      "æĹĭè½¬": 6245,
      "åı£åı·": 6246,
      "ç»Ŀå¯¹": 6247,
      "çļĦè§ĤçĤ¹": 6248,
      "ä¸»æ¼Ķ": 6249,
      "ä¸ªåŃĹ": 6250,
      "çĳŁ": 6251,
      "éļ¾é¢ĺ": 6252,
      "åŃ¦ä¹łæĸ°": 6253,
      "åĲİæĿ¥": 6254,
      "ç¾İåĽ½æĢ»ç»Ł": 6255,
      "åħ¶ä¸Ńä¸Ģä¸ª": 6256,
      "åĬŀæ³ķ": 6257,
      "æĭ¥åłµ": 6258,
      "åĴĮå¯¹": 6259,
      "å¯¹æĸĩæľ¬éĶĻè¯¯è¿Ľè¡Į": 6260,
      "æ¨ª": 6261,
      "åģļèµ·": 6262,
      "éĿ¢ç²ī": 6263,
      "èĢģäºº": 6264,
      "åĲ«éĩı": 6265,
      "ç»Ļä½łä¸¤ä¸ª": 6266,
      "è®©ä»ĸä»¬": 6267,
      "ç±»ä¼¼äºİ": 6268,
      "éĹ¹": 6269,
      "ä¿¡çĶ¨": 6270,
      "åĿ¡": 6271,
      "åĽłä¸ºæĪĳ": 6272,
      "åĽ´ç»ķ": 6273,
      "å¯¹è¯Ŀä¸Ń": 6274,
      "åķ¦": 6275,
      "é£İåĲ¹": 6276,
      "çĶŁæĪĲä¸Ģé¦ĸ": 6277,
      "çĶ·äºº": 6278,
      "å¹¶å¯¹": 6279,
      "æµĨ": 6280,
      "çŃīå¤ļç§į": 6281,
      "æ²³æµģ": 6282,
      "æĸĩæľ¬çºłéĶĻ": 6283,
      "AP": 6284,
      "æĢĴ": 6285,
      "çľĭçĿĢ": 6286,
      "åħ¼": 6287,
      "å¹²æĹ±": 6288,
      "ç¼ĸè¾ĳä¸ĭéĿ¢": 6289,
      "æĿľ": 6290,
      "åĴĮå°ı": 6291,
      "å¸ħ": 6292,
      "è·Łè¸ª": 6293,
      "åľĨå½¢": 6294,
      "åĴĮä½¿çĶ¨": 6295,
      "æĹĭå¾ĭ": 6296,
      "è½¨éģĵ": 6297,
      "è¿½æº¯": 6298,
      "åħĥéĴ±": 6299,
      "ä¸´åºĬ": 6300,
      "æĶ¾ç½®": 6301,
      "äººå·¥æĻºèĥ½å°Ĩ": 6302,
      "èĢĲå¿ĥ": 6303,
      "å¦ĤæŀľæĤ¨éľĢè¦ģ": 6304,
      "çĶŁæĪĲä»ĸä»¬ä¹ĭéĹ´": 6305,
      "è¦ģæ±Ĥå¯¹è¯ĿåĨħå®¹": 6306,
      "è¯¦ç»Ĩä¸°å¯Į": 6307,
      "è§Ĵèī²ä¿¡æģ¯å¦Ĥä¸ĭ": 6308,
      "ç»Ļä½łä¸¤ä¸ªè§Ĵèī²ä¿¡æģ¯å¦Ĥä¸ĭ": 6309,
      "çĶŁæĪĲä»ĸä»¬ä¹ĭéĹ´çļĦä¸Ģæ®µå¯¹è¯Ŀ": 6310,
      "è¦ģæ±Ĥå¯¹è¯ĿåĨħå®¹è¯¦ç»Ĩä¸°å¯Į": 6311,
      "éĽĩ": 6312,
      "1000": 6313,
      "æŀļ": 6314,
      "ä»¥éģ¿åħį": 6315,
      "è¾¾æĪĲ": 6316,
      "¬éĹ´": 6317,
      "æł¼å¼ı": 6318,
      "Ġä»ĸ": 6319,
      "æĶ¹éĿ©": 6320,
      "èĤĿ": 6321,
      "æľĢéĩįè¦ģçļĦæĺ¯": 6322,
      "Ġè¿Ļä¸ª": 6323,
      "ç½Ĺé©¬": 6324,
      "äºĨä¸Ģåľº": 6325,
      "èľľèľĤ": 6326,
      "æ°Ķè±¡": 6327,
      "åħ±åĲĮåĬªåĬĽ": 6328,
      "æłĩçĤ¹ç¬¦åı·": 6329,
      "æĹłæķ°": 6330,
      "æ¯Ķçī¹": 6331,
      "ç²¾èĩ´": 6332,
      "å®¢è§Ĥ": 6333,
      "çļĦæĢĿæĥ³": 6334,
      "çļĦçĤ": 6335,
      "æĢ§éĹ®é¢ĺ": 6336,
      "æ¹¾": 6337,
      "çľĭäºĨ": 6338,
      "å·²ç»ıåľ¨": 6339,
      "åĢ¡": 6340,
      "å¿ĥè¡Ģç®¡": 6341,
      "ç¿»è¯ĳæĪĲçİ°ä»£": 6342,
      "èĬĤçľģ": 6343,
      "æłĳåı¶": 6344,
      "éĢĲæŃ¥": 6345,
      "åħ¨çĲĥæ°ĶåĢĻåıĺåĮĸ": 6346,
      "çĶŁåĳ½çļĦ": 6347,
      "ç¬Ķè®°": 6348,
      "ĸæģ¯åľ°": 6349,
      "åħĭæĸ¯": 6350,
      "æľºåĻ¨åŃ¦ä¹łåĴĮ": 6351,
      "åģļä»Ģä¹Ī": 6352,
      "ä¿¡æģ¯åĴĮ": 6353,
      "åĨĽäºĭ": 6354,
      "äººå·¥æĻºèĥ½æĬĢæľ¯çļĦ": 6355,
      "ç¿»è¯ĳæĪĲæĸĩè¨Ģæĸĩ": 6356,
      "å¼¯": 6357,
      "ç»ĦæĪĲçļĦ": 6358,
      "èįīåİŁ": 6359,
      "è¿ĩæ»¤": 6360,
      "åħįè´¹": 6361,
      "ä¸Ńåįİ": 6362,
      "è®©æĤ¨": 6363,
      "çļĦæĤ": 6364,
      "ç®Ģæĺİ": 6365,
      "æĺ¯ä»Ģä¹ĪæĦıæĢĿ": 6366,
      "æľīå¤ļå°ĳ": 6367,
      "æľīäºĨ": 6368,
      "ä¸ĭåİ»": 6369,
      "å¯¦": 6370,
      "çĶŁäº§åĬĽ": 6371,
      "éĨĭ": 6372,
      "å¦ĤæŀľæĤ¨åĸľæ¬¢": 6373,
      "ç»ĵæŀĦåĴĮ": 6374,
      "å®ĿèĹı": 6375,
      "èµ¢å¾ĹäºĨ": 6376,
      "æĺ¯ä¸Ģä¸ªéĿŀå¸¸": 6377,
      "æł¹æį®ä»¥ä¸Ĭ": 6378,
      "...": 6379,
      "è¯ŃæĢģ": 6380,
      "æĪĳçĽ¸ä¿¡": 6381,
      "è¿Ļä¸ªæĸĩæľ¬": 6382,
      "ä¸ĸçķĮçļĦ": 6383,
      "ä¸įåºĶè¯¥": 6384,
      "åĳ½åĲį": 6385,
      "éħįåĲĪ": 6386,
      "åľ¨è¿Ļç§į": 6387,
      "åı¥åŃĲä¸ŃçļĦ": 6388,
      "èº«ä¸Ĭ": 6389,
      "è¿Ļç¯ĩæĸĩç«łä¸»è¦ģ": 6390,
      "åĲ¦å®ļ": 6391,
      "æĿ¥è¿Ľè¡Į": 6392,
      "å¥¹åľ¨": 6393,
      "é«ĺæ¸©": 6394,
      "èģĶçĽŁ": 6395,
      "è¥¿çĵľ": 6396,
      "ç¿»è¯ĳæĪĲçİ°ä»£æĸĩ": 6397,
      "ä¹ĭæĥħ": 6398,
      "çĮ´": 6399
    },
    "merges": [
      [
        "ä",
        "¸"
      ],
      [
        "ï",
        "¼"
      ],
      [
        "ç",
        "ļ"
      ],
      [
        "çļ",
        "Ħ"
      ],
      [
        "ï¼",
        "Į"
      ],
      [
        "ã",
        "Ģ"
      ],
      [
        "ãĢ",
        "Ĥ"
      ],
      [
        "ä",
        "º"
      ],
      [
        "ä",
        "»"
      ],
      [
        "å",
        "ı"
      ],
      [
        "æ",
        "ľ"
      ],
      [
        "è",
        "¿"
      ],
      [
        "æ",
        "Ī"
      ],
      [
        "å",
        "ħ"
      ],
      [
        "ä",
        "½"
      ],
      [
        "æ",
        "ĺ"
      ],
      [
        "å",
        "¤"
      ],
      [
        "i",
        "m"
      ],
      [
        "|",
        ">"
      ],
      [
        "<",
        "|"
      ],
      [
        "è",
        "¯"
      ],
      [
        "ä¸",
        "Ģ"
      ],
      [
        "æ",
        "ĸ"
      ],
      [
        "å",
        "®"
      ],
      [
        "ç",
        "Ķ"
      ],
      [
        "å",
        "Ī"
      ],
      [
        "å",
        "Ĵ"
      ],
      [
        "å",
        "ľ"
      ],
      [
        "åĴ",
        "Į"
      ],
      [
        "å",
        "Ĳ"
      ],
      [
        "å",
        "Ĭ"
      ],
      [
        "ç",
        "»"
      ],
      [
        "ä",
        "¹"
      ],
      [
        "æĺ",
        "¯"
      ],
      [
        "å",
        "°"
      ],
      [
        "å",
        "Ń"
      ],
      [
        "ä¸",
        "ª"
      ],
      [
        "ä»",
        "¥"
      ],
      [
        "è",
        "®"
      ],
      [
        "ãĢ",
        "ģ"
      ],
      [
        "æĪ",
        "ĳ"
      ],
      [
        "åľ",
        "¨"
      ],
      [
        "äº",
        "º"
      ],
      [
        "ĥ",
        "½"
      ],
      [
        "a",
        "r"
      ],
      [
        "e",
        "n"
      ],
      [
        "s",
        "t"
      ],
      [
        "ar",
        "t"
      ],
      [
        "en",
        "d"
      ],
      [
        "st",
        "art"
      ],
      [
        "æľ",
        "ī"
      ],
      [
        "ï¼",
        "ļ"
      ],
      [
        "æ",
        "Ĺ"
      ],
      [
        "äº",
        "Ĩ"
      ],
      [
        "åı",
        "¯"
      ],
      [
        "è¿",
        "Ļ"
      ],
      [
        "å",
        "Ľ"
      ],
      [
        "æ",
        "Ŀ"
      ],
      [
        "å",
        "º"
      ],
      [
        "é",
        "ĩ"
      ],
      [
        "å",
        "¹"
      ],
      [
        "å",
        "¸"
      ],
      [
        "ä¸",
        "Ń"
      ],
      [
        "ä",
        "¼"
      ],
      [
        "é",
        "Ģ"
      ],
      [
        "è",
        "¡"
      ],
      [
        "è",
        "ĥ½"
      ],
      [
        "çļĦ",
        "æ"
      ],
      [
        "å",
        "ĩ"
      ],
      [
        "ãĢĤ",
        "<|"
      ],
      [
        "å",
        "·"
      ],
      [
        "æĸ",
        "ĩ"
      ],
      [
        "å",
        "Į"
      ],
      [
        "è",
        "¦"
      ],
      [
        "è¦",
        "ģ"
      ],
      [
        "é",
        "¢"
      ],
      [
        "å",
        "¯"
      ],
      [
        "å",
        "¾"
      ],
      [
        "å",
        "Ĩ"
      ],
      [
        "ä¸",
        "º"
      ],
      [
        "è",
        "§"
      ],
      [
        "å",
        "¥"
      ],
      [
        "ç",
        "ī"
      ],
      [
        "ç",
        "§"
      ],
      [
        "ä»",
        "¬"
      ],
      [
        "é",
        "Ĺ"
      ],
      [
        "ç",
        "İ"
      ],
      [
        "å",
        "¼"
      ],
      [
        "ä¸",
        "į"
      ],
      [
        "çĶ",
        "¨"
      ],
      [
        "æ",
        "ķ"
      ],
      [
        "è",
        "Ģ"
      ],
      [
        "å",
        "½"
      ],
      [
        "æ",
        "Ģ"
      ],
      [
        "æ",
        "ŀ"
      ],
      [
        "çĶ",
        "Ł"
      ],
      [
        "ç",
        "Ń"
      ],
      [
        "æ",
        "ı"
      ],
      [
        "æ",
        "ī"
      ],
      [
        "æ",
        "Ń"
      ],
      [
        "åı¯",
        "ä»¥"
      ],
      [
        "é",
        "Ŀ"
      ],
      [
        "å",
        "į"
      ],
      [
        "Ġ",
        "<|"
      ],
      [
        "ä",
        "¿"
      ],
      [
        "æ",
        "Ĭ"
      ],
      [
        "æ",
        "ł"
      ],
      [
        "æ",
        "³"
      ],
      [
        "ç",
        "Ľ"
      ],
      [
        "â",
        "Ģ"
      ],
      [
        "æĿ",
        "¥"
      ],
      [
        "è",
        "ĩ"
      ],
      [
        "æ",
        "Ħ"
      ],
      [
        "å",
        "ĵ"
      ],
      [
        "å",
        "¦"
      ],
      [
        "ä¸",
        "ĭ"
      ],
      [
        "ç",
        "Ĳ"
      ],
      [
        "ä¸Ģ",
        "ä¸ª"
      ],
      [
        "æĪ",
        "Ĳ"
      ],
      [
        "å",
        "İ"
      ],
      [
        "æ",
        "ĥ"
      ],
      [
        "æı",
        "Ĳ"
      ],
      [
        "æ",
        "°"
      ],
      [
        "åĪ",
        "°"
      ],
      [
        "ä»",
        "ĸ"
      ],
      [
        "æ",
        "Ľ"
      ],
      [
        "åŃ",
        "¦"
      ],
      [
        "æ",
        "Ļ"
      ],
      [
        "å¦",
        "Ĥ"
      ],
      [
        "è¡",
        "Į"
      ],
      [
        "åĩ",
        "º"
      ],
      [
        "å",
        "ĳ"
      ],
      [
        "å",
        "¿"
      ],
      [
        "æĹ",
        "¶"
      ],
      [
        "å¯",
        "¹"
      ],
      [
        "æ",
        "ĭ"
      ],
      [
        "ä½",
        "ł"
      ],
      [
        "åŃ",
        "Ĳ"
      ],
      [
        "ä",
        "¾"
      ],
      [
        "äº",
        "İ"
      ],
      [
        "æ",
        "İ"
      ],
      [
        "åľ",
        "°"
      ],
      [
        "é¢",
        "ĺ"
      ],
      [
        "ä¸",
        "Ĭ"
      ],
      [
        "ç",
        "«"
      ],
      [
        "æ",
        "Ķ"
      ],
      [
        "è",
        "´"
      ],
      [
        "å°",
        "ı"
      ],
      [
        "å¥",
        "½"
      ],
      [
        "ä¼",
        "ļ"
      ],
      [
        "çŃ",
        "ī"
      ],
      [
        "æĸ",
        "¹"
      ],
      [
        "æľ",
        "¬"
      ],
      [
        "èĩ",
        "ª"
      ],
      [
        "åĪ",
        "Ĩ"
      ],
      [
        "æĽ",
        "´"
      ],
      [
        "äº",
        "Ľ"
      ],
      [
        "å¤",
        "ļ"
      ],
      [
        "æ",
        "µ"
      ],
      [
        "æ",
        "¯"
      ],
      [
        "è",
        "µ"
      ],
      [
        "å¤",
        "§"
      ],
      [
        "å",
        "±"
      ],
      [
        "æ",
        "į"
      ],
      [
        "ï¼",
        "Ł"
      ],
      [
        "åĬ",
        "¨"
      ],
      [
        "ä½",
        "ľ"
      ],
      [
        "å·",
        "¥"
      ],
      [
        "çī",
        "©"
      ],
      [
        "ç",
        "º"
      ],
      [
        "åħ",
        "³"
      ],
      [
        "è",
        "¾"
      ],
      [
        "å¹",
        "¶"
      ],
      [
        "åı",
        "ĳ"
      ],
      [
        "ç",
        "®"
      ],
      [
        "æ",
        "Į"
      ],
      [
        "ç",
        "±"
      ],
      [
        "é",
        "£"
      ],
      [
        "é",
        "ľ"
      ],
      [
        "æĪĳ",
        "ä»¬"
      ],
      [
        "éĿ",
        "¢"
      ],
      [
        "æ",
        "´"
      ],
      [
        "å®",
        "ļ"
      ],
      [
        "æľ",
        "Ģ"
      ],
      [
        "åħ",
        "¶"
      ],
      [
        "æŀ",
        "ľ"
      ],
      [
        "å",
        "Ł"
      ],
      [
        "æ",
        "¬"
      ],
      [
        "ç§",
        "į"
      ],
      [
        "çİ",
        "°"
      ],
      [
        "çļĦ",
        "ç"
      ],
      [
        "è¿",
        "Ľ"
      ],
      [
        "æ³",
        "ķ"
      ],
      [
        "é",
        "Ļ"
      ],
      [
        "è¿",
        "ĩ"
      ],
      [
        "æ",
        "Ĥ"
      ],
      [
        "éĹ",
        "®"
      ],
      [
        "å",
        "ģ"
      ],
      [
        "æ",
        "¸"
      ],
      [
        "ä½",
        "ĵ"
      ],
      [
        "è",
        "ī"
      ],
      [
        "å¤",
        "©"
      ],
      [
        "å®",
        "ĥ"
      ],
      [
        "æį",
        "®"
      ],
      [
        "ç»",
        "Ļ"
      ],
      [
        "åĬ",
        "Ľ"
      ],
      [
        "çĲ",
        "Ĩ"
      ],
      [
        "æĺ",
        "İ"
      ],
      [
        "éľ",
        "Ģ"
      ],
      [
        "æ",
        "²"
      ],
      [
        "å°",
        "Ĩ"
      ],
      [
        "åº",
        "Ķ"
      ],
      [
        "åĬ",
        "ł"
      ],
      [
        "ç±",
        "»"
      ],
      [
        "æĸ",
        "°"
      ],
      [
        "é",
        "ģ"
      ],
      [
        "ç",
        "Ĥ"
      ],
      [
        "åĮ",
        "ĸ"
      ],
      [
        "æĢ",
        "§"
      ],
      [
        "ç",
        "Ħ"
      ],
      [
        "é",
        "«"
      ],
      [
        "åĲ",
        "Į"
      ],
      [
        "æĪ",
        "ĸ"
      ],
      [
        "ä½",
        "¿"
      ],
      [
        "åĽ",
        "ł"
      ],
      [
        "ä¿",
        "Ŀ"
      ],
      [
        "å¸",
        "¸"
      ],
      [
        "éĩ",
        "į"
      ],
      [
        "ç",
        "ľ"
      ],
      [
        "é«",
        "ĺ"
      ],
      [
        "åı",
        "¥"
      ],
      [
        "è",
        "½"
      ],
      [
        "æĦ",
        "Ł"
      ],
      [
        "å®",
        "¶"
      ],
      [
        "ä¹",
        "Ł"
      ],
      [
        "æľ",
        "º"
      ],
      [
        "å½",
        "±"
      ],
      [
        "è",
        "¶"
      ],
      [
        "æ",
        "±"
      ],
      [
        "ä¸",
        "»"
      ],
      [
        "é",
        "Ķ"
      ],
      [
        "é",
        "ĺ"
      ],
      [
        "è¯",
        "Ń"
      ],
      [
        "çĦ",
        "¶"
      ],
      [
        "ç«",
        "ł"
      ],
      [
        "å¾",
        "Ĺ"
      ],
      [
        "âĢ",
        "Ŀ"
      ],
      [
        "æķ",
        "°"
      ],
      [
        "æĸĩ",
        "ç«ł"
      ],
      [
        "éĢ",
        "ļ"
      ],
      [
        "åĵ",
        "ģ"
      ],
      [
        "âĢ",
        "ľ"
      ],
      [
        "ç",
        "³"
      ],
      [
        "éľĢ",
        "è¦ģ"
      ],
      [
        "çĶ",
        "µ"
      ],
      [
        "æĬ",
        "Ģ"
      ],
      [
        "æĻ",
        "º"
      ],
      [
        "è",
        "°"
      ],
      [
        "è§",
        "£"
      ],
      [
        "æĸĩ",
        "æľ¬"
      ],
      [
        "ä¹",
        "ĭ"
      ],
      [
        "ä¹",
        "Ī"
      ],
      [
        "æĥ",
        "ħ"
      ],
      [
        "æĤ",
        "¨"
      ],
      [
        "éĹ®",
        "é¢ĺ"
      ],
      [
        "åº",
        "¦"
      ],
      [
        "ç",
        "Ł"
      ],
      [
        "èĢ",
        "Į"
      ],
      [
        "å",
        "ī"
      ],
      [
        "æ",
        "ģ"
      ],
      [
        "è¡",
        "¨"
      ],
      [
        "ç»",
        "ı"
      ],
      [
        "æĻº",
        "èĥ½"
      ],
      [
        "è¯",
        "·"
      ],
      [
        "ç",
        "Ŀ"
      ],
      [
        "å¾",
        "Ī"
      ],
      [
        "éĹ",
        "´"
      ],
      [
        "æŃ",
        "¤"
      ],
      [
        "è",
        "Ĭ"
      ],
      [
        "å",
        "ĸ"
      ],
      [
        "ç",
        "¾"
      ],
      [
        "åħ",
        "¬"
      ],
      [
        "å",
        "¢"
      ],
      [
        "éĩ",
        "ı"
      ],
      [
        "åĽ",
        "½"
      ],
      [
        "ç",
        "©"
      ],
      [
        "çĤ",
        "¹"
      ],
      [
        "æľ",
        "¯"
      ],
      [
        "ç",
        "¤"
      ],
      [
        "èī",
        "²"
      ],
      [
        "è",
        "Ĥ"
      ],
      [
        "èĢ",
        "ħ"
      ],
      [
        "è¯",
        "į"
      ],
      [
        "å¹",
        "´"
      ],
      [
        "å®",
        "ŀ"
      ],
      [
        "æ°",
        "Ķ"
      ],
      [
        "å",
        "»"
      ],
      [
        "å",
        "Ģ"
      ],
      [
        "åı",
        "ĸ"
      ],
      [
        "ä¿",
        "¡"
      ],
      [
        "è¿Ļ",
        "ä¸ª"
      ],
      [
        "ä¹",
        "ł"
      ],
      [
        "åĲ",
        "į"
      ],
      [
        "ç",
        "¨"
      ],
      [
        "å¿",
        "ĥ"
      ],
      [
        "ä½",
        "Ĩ"
      ],
      [
        "åĲ",
        "Ī"
      ],
      [
        "æĦ",
        "ı"
      ],
      [
        "è¯",
        "¥"
      ],
      [
        "ä¸",
        "ļ"
      ],
      [
        "ä¾",
        "Ľ"
      ],
      [
        "ç",
        "ĸ"
      ],
      [
        "è®",
        "¡"
      ],
      [
        "åĲ",
        "İ"
      ],
      [
        "ç",
        "¡"
      ],
      [
        "é",
        "Ĥ"
      ],
      [
        "äº",
        "ĭ"
      ],
      [
        "æī",
        "Ģ"
      ],
      [
        "ä»¥",
        "ä¸ĭ"
      ],
      [
        "ä»",
        "İ"
      ],
      [
        "è¿",
        "ĺ"
      ],
      [
        "å»",
        "º"
      ],
      [
        "æ",
        "®"
      ],
      [
        "çĽ",
        "¸"
      ],
      [
        "çĿ",
        "Ģ"
      ],
      [
        "çĲ",
        "ĥ"
      ],
      [
        "ä¸Ģ",
        "äºĽ"
      ],
      [
        "é",
        "ĥ½"
      ],
      [
        "åĮ",
        "ħ"
      ],
      [
        "æıĲ",
        "ä¾Ľ"
      ],
      [
        "æ´",
        "»"
      ],
      [
        "ä¸",
        "İ"
      ],
      [
        "ç¾",
        "İ"
      ],
      [
        "æł",
        "¹"
      ],
      [
        "è¿Ľ",
        "è¡Į"
      ],
      [
        "æ",
        "Ł"
      ],
      [
        "åı¥",
        "åŃĲ"
      ],
      [
        "ç",
        "½"
      ],
      [
        "å¼",
        "ı"
      ],
      [
        "é£",
        "Ł"
      ],
      [
        "åħ",
        "¥"
      ],
      [
        "å±",
        "ķ"
      ],
      [
        "åħ",
        "¨"
      ],
      [
        "éĩ",
        "Į"
      ],
      [
        "è¿",
        "°"
      ],
      [
        "äºº",
        "å·¥"
      ],
      [
        "å¤",
        "ĸ"
      ],
      [
        "çİ",
        "¯"
      ],
      [
        "é",
        "¡"
      ],
      [
        "ç",
        "ķ"
      ],
      [
        "çī",
        "¹"
      ],
      [
        "ä½¿",
        "çĶ¨"
      ],
      [
        "æĥ",
        "³"
      ],
      [
        "ç",
        "´"
      ],
      [
        "éĿ",
        "ŀ"
      ],
      [
        "è",
        "Ĳ"
      ],
      [
        "é",
        "¦"
      ],
      [
        "äººå·¥",
        "æĻºèĥ½"
      ],
      [
        "ç",
        "¯"
      ],
      [
        "åĨ",
        "ħ"
      ],
      [
        "æŃ",
        "£"
      ],
      [
        "æ",
        "¡"
      ],
      [
        "è",
        "¢"
      ],
      [
        "é",
        "ļ"
      ],
      [
        "å½",
        "ĵ"
      ],
      [
        "å¼",
        "Ģ"
      ],
      [
        "åİ",
        "»"
      ],
      [
        "é",
        "ķ"
      ],
      [
        "æģ",
        "¯"
      ],
      [
        "æł¹",
        "æį®"
      ],
      [
        "æ°",
        "´"
      ],
      [
        "æ",
        "·"
      ],
      [
        "æ¯",
        "Ķ"
      ],
      [
        "åı",
        "ĺ"
      ],
      [
        "åĨ",
        "Ļ"
      ],
      [
        "æ®",
        "µ"
      ],
      [
        "æĺ¯",
        "ä¸Ģ"
      ],
      [
        "å",
        "ŀ"
      ],
      [
        "é",
        "ĥ"
      ],
      [
        "ç³",
        "»"
      ],
      [
        "è",
        "·"
      ],
      [
        "åĬ",
        "©"
      ],
      [
        "è",
        "ģ"
      ],
      [
        "è¯",
        "´"
      ],
      [
        "åŃ¦",
        "ä¹ł"
      ],
      [
        "ç¨",
        "ĭ"
      ],
      [
        "åĪ",
        "¶"
      ],
      [
        "åħ",
        "·"
      ],
      [
        "ç¡",
        "®"
      ],
      [
        "å¸",
        "Ĥ"
      ],
      [
        "è®",
        "©"
      ],
      [
        "ä»",
        "Ģ"
      ],
      [
        "é",
        "Ľ"
      ],
      [
        "æĮ",
        "ģ"
      ],
      [
        "éģ",
        "ĵ"
      ],
      [
        "å",
        "Ŀ"
      ],
      [
        "çľ",
        "ĭ"
      ],
      [
        "ç¯",
        "ĩ"
      ],
      [
        "ç",
        "¼"
      ],
      [
        "äº",
        "§"
      ],
      [
        "èµ",
        "·"
      ],
      [
        "ç",
        "ĥ"
      ],
      [
        "ç»",
        "ĵ"
      ],
      [
        "å",
        "ķ"
      ],
      [
        "ä»Ģ",
        "ä¹Ī"
      ],
      [
        "æĬĢ",
        "æľ¯"
      ],
      [
        "å¸",
        "®"
      ],
      [
        "è",
        "º"
      ],
      [
        "åı",
        "Ĭ"
      ],
      [
        "è¯",
        "Ŀ"
      ],
      [
        "éĥ",
        "¨"
      ],
      [
        "çĽ",
        "®"
      ],
      [
        "éĤ",
        "£"
      ],
      [
        "è",
        "ĭ"
      ],
      [
        "ç",
        "¬"
      ],
      [
        "ä½",
        "ķ"
      ],
      [
        "éķ",
        "¿"
      ],
      [
        "éĿŀ",
        "å¸¸"
      ],
      [
        "è",
        "į"
      ],
      [
        "åĬ",
        "¡"
      ],
      [
        "ç®",
        "Ĺ"
      ],
      [
        "æ¯",
        "ı"
      ],
      [
        "èº",
        "«"
      ],
      [
        "ç",
        "ĭ"
      ],
      [
        "è¢",
        "«"
      ],
      [
        "åģ",
        "¥"
      ],
      [
        "ç§",
        "ĳ"
      ],
      [
        "æĹ",
        "¥"
      ],
      [
        "å°",
        "ĳ"
      ],
      [
        "å·",
        "±"
      ],
      [
        "åī",
        "į"
      ],
      [
        "å",
        "Ļ"
      ],
      [
        "æĭ",
        "¬"
      ],
      [
        "é",
        "ħ"
      ],
      [
        "éĢ",
        "Ĥ"
      ],
      [
        "åĸ",
        "ľ"
      ],
      [
        "èĩª",
        "å·±"
      ],
      [
        "åľ",
        "º"
      ],
      [
        "å®",
        "¹"
      ],
      [
        "åı",
        "Ĺ"
      ],
      [
        "åı¯",
        "èĥ½"
      ],
      [
        "æĹ",
        "ł"
      ],
      [
        "åĽ",
        "ŀ"
      ],
      [
        "æ¬",
        "¢"
      ],
      [
        "ä¿¡",
        "æģ¯"
      ],
      [
        "éĢ",
        "ī"
      ],
      [
        "ä»ĸ",
        "ä»¬"
      ],
      [
        "åĻ",
        "¨"
      ],
      [
        "åĮ",
        "»"
      ],
      [
        "äº",
        "¤"
      ],
      [
        "å¥½",
        "çļĦ"
      ],
      [
        "ä»",
        "£"
      ],
      [
        "åŀ",
        "ĭ"
      ],
      [
        "é¢",
        "Ĩ"
      ],
      [
        "åĪ",
        "«"
      ],
      [
        "è",
        "Ļ"
      ],
      [
        "ç",
        "ł"
      ],
      [
        "å¤",
        "Ħ"
      ],
      [
        "çĶµ",
        "å½±"
      ],
      [
        "çŃ",
        "Ķ"
      ],
      [
        "è",
        "¨"
      ],
      [
        "é",
        "¥"
      ],
      [
        "ç",
        "Ī"
      ],
      [
        "é",
        "ª"
      ],
      [
        "æ",
        "¶"
      ],
      [
        "ä½",
        "į"
      ],
      [
        "åĪ",
        "©"
      ],
      [
        "è´",
        "¨"
      ],
      [
        "æ",
        "»"
      ],
      [
        "è®",
        "®"
      ],
      [
        "é£",
        "İ"
      ],
      [
        "å¢",
        "ĥ"
      ],
      [
        "å¹",
        "³"
      ],
      [
        "ä¸",
        "¤"
      ],
      [
        "æ¡",
        "Ī"
      ],
      [
        "æī",
        "ĭ"
      ],
      [
        "ç",
        "Ĺ"
      ],
      [
        "å",
        "§"
      ],
      [
        "ä¾",
        "ĭ"
      ],
      [
        "è¿Ļ",
        "äºĽ"
      ],
      [
        "éĩį",
        "è¦ģ"
      ],
      [
        "éĢļ",
        "è¿ĩ"
      ],
      [
        "å¦Ĥ",
        "æŀľ"
      ],
      [
        "ä¸Ń",
        "çļĦ"
      ],
      [
        "é",
        "Ł"
      ],
      [
        "ä»",
        "»"
      ],
      [
        "åĵ",
        "į"
      ],
      [
        "ä»",
        "¶"
      ],
      [
        "çĶŁ",
        "æĪĲ"
      ],
      [
        "åĮħ",
        "æĭ¬"
      ],
      [
        "è®",
        "º"
      ],
      [
        "åŃ",
        "Ĺ"
      ],
      [
        "åı",
        "¸"
      ],
      [
        "åŁ",
        "Ł"
      ],
      [
        "åıĳ",
        "å±ķ"
      ],
      [
        "è¨",
        "Ģ"
      ],
      [
        "ç",
        "Ļ"
      ],
      [
        "åºĶ",
        "çĶ¨"
      ],
      [
        "å°ı",
        "æĺİ"
      ],
      [
        "å°",
        "±"
      ],
      [
        "æł",
        "ĩ"
      ],
      [
        "ç®",
        "Ģ"
      ],
      [
        "æ±",
        "Ĥ"
      ],
      [
        "æ²",
        "¡"
      ],
      [
        "åĪ",
        "Ľ"
      ],
      [
        "åį",
        "ķ"
      ],
      [
        "åĨ",
        "³"
      ],
      [
        "è§",
        "Ĥ"
      ],
      [
        "æĶ",
        "¹"
      ],
      [
        "æĶ",
        "¾"
      ],
      [
        "æİ",
        "¨"
      ],
      [
        "æ¸",
        "¸"
      ],
      [
        "è",
        "Ī"
      ],
      [
        "ç",
        "ģ"
      ],
      [
        "åı",
        "ª"
      ],
      [
        "æľ",
        "ª"
      ],
      [
        "è®",
        "¾"
      ],
      [
        "å½±",
        "åĵį"
      ],
      [
        "çŁ",
        "¥"
      ],
      [
        "åº",
        "·"
      ],
      [
        "ç»",
        "Ł"
      ],
      [
        "æĹ¶",
        "éĹ´"
      ],
      [
        "ä¸",
        "ī"
      ],
      [
        "æĢ",
        "»"
      ],
      [
        "å¸®",
        "åĬ©"
      ],
      [
        "ç",
        "¥"
      ],
      [
        "æľ",
        "Ł"
      ],
      [
        "é",
        "»"
      ],
      [
        "å",
        "£"
      ],
      [
        "åĸľ",
        "æ¬¢"
      ],
      [
        "æ",
        "º"
      ],
      [
        "ä¹",
        "Ĳ"
      ],
      [
        "èĬ",
        "Ĥ"
      ],
      [
        "åħ¬",
        "åı¸"
      ],
      [
        "æı",
        "ı"
      ],
      [
        "æķ",
        "Ī"
      ],
      [
        "è¯",
        "Ĩ"
      ],
      [
        "åģ¥",
        "åº·"
      ],
      [
        "æµ",
        "·"
      ],
      [
        "æ",
        "¨"
      ],
      [
        "å¼",
        "º"
      ],
      [
        "å¤",
        "Ł"
      ],
      [
        "è",
        "ĥ"
      ],
      [
        "ç»Ļ",
        "å®ļ"
      ],
      [
        "ç¤",
        "¾"
      ],
      [
        "æĸ",
        "Ń"
      ],
      [
        "åĩ",
        "ı"
      ],
      [
        "äºº",
        "ç±»"
      ],
      [
        "æ",
        "ĳ"
      ],
      [
        "æ³",
        "¨"
      ],
      [
        "æŀ",
        "ģ"
      ],
      [
        "å®",
        "ī"
      ],
      [
        "é¢Ĩ",
        "åŁŁ"
      ],
      [
        "çĶŁ",
        "æ´»"
      ],
      [
        "æ",
        "¼"
      ],
      [
        "æľ",
        "į"
      ],
      [
        "è¾",
        "¾"
      ],
      [
        "æ·",
        "±"
      ],
      [
        "çĶ",
        "±"
      ],
      [
        "æł",
        "·"
      ],
      [
        "çĸ",
        "Ĺ"
      ],
      [
        "åĽł",
        "æŃ¤"
      ],
      [
        "çİ¯",
        "å¢ĥ"
      ],
      [
        "ä¸į",
        "åĲĮ"
      ],
      [
        "æŃ",
        "¥"
      ],
      [
        "å·¥",
        "ä½ľ"
      ],
      [
        "æĺ",
        "Ł"
      ],
      [
        "è",
        "±"
      ],
      [
        "è",
        "Ħ"
      ],
      [
        "é",
        "©"
      ],
      [
        "éŁ",
        "³"
      ],
      [
        "å¤",
        "ª"
      ],
      [
        "æķ°",
        "æį®"
      ],
      [
        "æµ",
        "ģ"
      ],
      [
        "å½",
        "¢"
      ],
      [
        "åİ",
        "Ł"
      ],
      [
        "åģ",
        "ļ"
      ],
      [
        "ä¸",
        "ĸ"
      ],
      [
        "å·",
        "²"
      ],
      [
        "è",
        "İ"
      ],
      [
        "æıĲ",
        "åıĸ"
      ],
      [
        "æĻ",
        "¯"
      ],
      [
        "è½",
        "¦"
      ],
      [
        "åı",
        "ĭ"
      ],
      [
        "æıı",
        "è¿°"
      ],
      [
        "æ²¡",
        "æľī"
      ],
      [
        "å¸",
        "¦"
      ],
      [
        "æĪ",
        "·"
      ],
      [
        "åĽł",
        "ä¸º"
      ],
      [
        "å¯",
        "¼"
      ],
      [
        "è¿",
        "Ĳ"
      ],
      [
        "æ¬",
        "¡"
      ],
      [
        "åĳ",
        "ĺ"
      ],
      [
        "ç",
        "Į"
      ],
      [
        "ç",
        "²"
      ],
      [
        "é",
        "Ĵ"
      ],
      [
        "è",
        "ı"
      ],
      [
        "å»º",
        "è®®"
      ],
      [
        "æ¨",
        "¡"
      ],
      [
        "æĸ",
        "Ļ"
      ],
      [
        "éĶ",
        "®"
      ],
      [
        "æıĲ",
        "é«ĺ"
      ],
      [
        "è¯",
        "ķ"
      ],
      [
        "èĩª",
        "çĦ¶"
      ],
      [
        "å®ĥ",
        "ä»¬"
      ],
      [
        "æī",
        "¾"
      ],
      [
        "ãĢ",
        "ĭ"
      ],
      [
        "åŁ",
        "º"
      ],
      [
        "ãĢ",
        "Ĭ"
      ],
      [
        "å¦Ĥ",
        "ä½ķ"
      ],
      [
        "è®",
        "¤"
      ],
      [
        "åİ",
        "Ĩ"
      ],
      [
        "ä¹",
        "ī"
      ],
      [
        "åŁ",
        "İ"
      ],
      [
        "æĽ´",
        "åĬł"
      ],
      [
        "å¥",
        "¹"
      ],
      [
        "ä¼",
        "ł"
      ],
      [
        "æº",
        "Ĳ"
      ],
      [
        "ä¸»",
        "è¦ģ"
      ],
      [
        "åĲ",
        "Ħ"
      ],
      [
        "åħ³",
        "éĶ®"
      ],
      [
        "ç¤",
        "º"
      ],
      [
        "æĬ",
        "¤"
      ],
      [
        "æĭ",
        "©"
      ],
      [
        "æĮ",
        "ĩ"
      ],
      [
        "åºĶ",
        "è¯¥"
      ],
      [
        "åĲ",
        "ĳ"
      ],
      [
        "éĢ",
        "ł"
      ],
      [
        "æł",
        "¼"
      ],
      [
        "ç»",
        "Ħ"
      ],
      [
        "éĢī",
        "æĭ©"
      ],
      [
        "çķ",
        "Į"
      ],
      [
        "åħ",
        "ī"
      ],
      [
        "çļĦæ",
        "ķ"
      ],
      [
        "æĸ¹",
        "å¼ı"
      ],
      [
        "æĹ",
        "ħ"
      ],
      [
        "åĲĮ",
        "æĹ¶"
      ],
      [
        "è¿",
        "ĳ"
      ],
      [
        "èĥ½",
        "å¤Ł"
      ],
      [
        "ç¯ĩ",
        "æĸĩç«ł"
      ],
      [
        "èĲ",
        "½"
      ],
      [
        "ç©",
        "¶"
      ],
      [
        "è",
        "£"
      ],
      [
        "åĨħ",
        "å®¹"
      ],
      [
        "è°",
        "ĥ"
      ],
      [
        "äºº",
        "ä»¬"
      ],
      [
        "åı",
        "£"
      ],
      [
        "çĪ",
        "±"
      ],
      [
        "ï¼",
        "Ľ"
      ],
      [
        "è¯Ń",
        "è¨Ģ"
      ],
      [
        "è§",
        "Ĩ"
      ],
      [
        "åĳ",
        "³"
      ],
      [
        "ç©",
        "º"
      ],
      [
        "çº",
        "¢"
      ],
      [
        "åĮ",
        "º"
      ],
      [
        "èĢ",
        "ĥ"
      ],
      [
        "ä»",
        "·"
      ],
      [
        "åĲ",
        "Ĺ"
      ],
      [
        "åħ³",
        "äºİ"
      ],
      [
        "ç",
        "Ĭ"
      ],
      [
        "ç½",
        "ĳ"
      ],
      [
        "èĬ",
        "±"
      ],
      [
        "åĳ",
        "Ĭ"
      ],
      [
        "æĺ¯",
        "ä¸Ģä¸ª"
      ],
      [
        "ä¾ĭ",
        "å¦Ĥ"
      ],
      [
        "æľª",
        "æĿ¥"
      ],
      [
        "çĹ",
        "ħ"
      ],
      [
        "é",
        "¤"
      ],
      [
        "è®¡",
        "ç®Ĺ"
      ],
      [
        "å¿",
        "«"
      ],
      [
        "å¹",
        "¿"
      ],
      [
        "æľº",
        "åĻ¨"
      ],
      [
        "ç®",
        "¡"
      ],
      [
        "æĸ¹",
        "æ³ķ"
      ],
      [
        "æĸ¹",
        "éĿ¢"
      ],
      [
        "é¢",
        "Ħ"
      ],
      [
        "å¢",
        "ŀ"
      ],
      [
        "ï¼",
        "ī"
      ],
      [
        "åķ",
        "Ĩ"
      ],
      [
        "éª",
        "Į"
      ],
      [
        "é¤",
        "Ĳ"
      ],
      [
        "æĢ",
        "Ŀ"
      ],
      [
        "Ķ",
        "ç©¶"
      ],
      [
        "ç",
        "¦"
      ],
      [
        "ä¹",
        "¦"
      ],
      [
        "ä¸",
        "Ķ"
      ],
      [
        "åĩ",
        "Ĩ"
      ],
      [
        "å®",
        "Į"
      ],
      [
        "åĩ",
        "ł"
      ],
      [
        "é¦",
        "ĸ"
      ],
      [
        "é",
        "ĵ"
      ],
      [
        "å®",
        "¢"
      ],
      [
        "éĶ",
        "Ļ"
      ],
      [
        "åĪ°",
        "äºĨ"
      ],
      [
        "é¡",
        "¹"
      ],
      [
        "åħ¶",
        "ä»ĸ"
      ],
      [
        "ä¼",
        "ĺ"
      ],
      [
        "è¶",
        "Ĭ"
      ],
      [
        "ä»¥",
        "åıĬ"
      ],
      [
        "ä¸»",
        "é¢ĺ"
      ],
      [
        "é",
        "¸"
      ],
      [
        "å¼",
        "ķ"
      ],
      [
        "éĩ",
        "ĳ"
      ],
      [
        "è®",
        "¸"
      ],
      [
        "è¯",
        "Ħ"
      ],
      [
        "æ",
        "ļ"
      ],
      [
        "æ¸",
        "ħ"
      ],
      [
        "åħ",
        "Ī"
      ],
      [
        "ç´",
        "ł"
      ],
      [
        "åĬ",
        "Ł"
      ],
      [
        "æ",
        "£"
      ],
      [
        "å¤",
        "ĩ"
      ],
      [
        "è½",
        "»"
      ],
      [
        "æİ",
        "¥"
      ],
      [
        "è§",
        "ī"
      ],
      [
        "åĪ",
        "Ĺ"
      ],
      [
        "ï¼",
        "Ī"
      ],
      [
        "è¯",
        "»"
      ],
      [
        "èµ",
        "Ħ"
      ],
      [
        "æĪ",
        "ĺ"
      ],
      [
        "è",
        "Į"
      ],
      [
        "åĪĨ",
        "ç±»"
      ],
      [
        "å§",
        "ĭ"
      ],
      [
        "ä»",
        "Ĭ"
      ],
      [
        "ä¸ª",
        "äºº"
      ],
      [
        "éĺ",
        "³"
      ],
      [
        "çŁ",
        "Ń"
      ],
      [
        "èĩ",
        "´"
      ],
      [
        "åŃ",
        "ĺ"
      ],
      [
        "åĵ",
        "ª"
      ],
      [
        "æµ",
        "ĭ"
      ],
      [
        "æķ",
        "Ļ"
      ],
      [
        "æĢ",
        "ģ"
      ],
      [
        "æ¸",
        "©"
      ],
      [
        "ç»",
        "Ń"
      ],
      [
        "åĢ",
        "Ļ"
      ],
      [
        "ï¼",
        "ģ"
      ],
      [
        "æľ",
        "ĭ"
      ],
      [
        "æŀ",
        "Ĳ"
      ],
      [
        "ç¼",
        "ĸ"
      ],
      [
        "ä¸ĸ",
        "çķĮ"
      ],
      [
        "åħ",
        "±"
      ],
      [
        "ä½Ĩ",
        "æĺ¯"
      ],
      [
        "åĲ",
        "«"
      ],
      [
        "æľ",
        "Ī"
      ],
      [
        "èı",
        "ľ"
      ],
      [
        "æľĭ",
        "åıĭ"
      ],
      [
        "çº",
        "¦"
      ],
      [
        "åħ",
        "ĭ"
      ],
      [
        "ç§",
        "¯"
      ],
      [
        "ç«",
        "ĭ"
      ],
      [
        "çİ",
        "ĩ"
      ],
      [
        "åĽŀ",
        "çŃĶ"
      ],
      [
        "æĸĩ",
        "åĮĸ"
      ],
      [
        "åĪĨ",
        "æŀĲ"
      ],
      [
        "å¤Ħ",
        "çĲĨ"
      ],
      [
        "åı",
        "²"
      ],
      [
        "ç»",
        "Ĩ"
      ],
      [
        "çļĦæ",
        "ĥ"
      ],
      [
        "ä¸Ģ",
        "ä¸ĭ"
      ],
      [
        "æĶ",
        "¯"
      ],
      [
        "åĩı",
        "å°ĳ"
      ],
      [
        "åŁİ",
        "å¸Ĥ"
      ],
      [
        "è±",
        "¡"
      ],
      [
        "å±",
        "±"
      ],
      [
        "ä¹ĭ",
        "ä¸Ģ"
      ],
      [
        "è¶",
        "³"
      ],
      [
        "è¿Ļ",
        "ç¯ĩæĸĩç«ł"
      ],
      [
        "ä¸Ń",
        "åĽ½"
      ],
      [
        "æķ",
        "´"
      ],
      [
        "åĲ",
        "¦"
      ],
      [
        "å¤",
        "į"
      ],
      [
        "ç¬",
        "¬"
      ],
      [
        "åĪ",
        "Ļ"
      ],
      [
        "æ»",
        "¡"
      ],
      [
        "åĨ",
        "µ"
      ],
      [
        "ä¿Ŀ",
        "æĬ¤"
      ],
      [
        "çł",
        "Ķç©¶"
      ],
      [
        "ĺ",
        "è¦ģ"
      ],
      [
        "è",
        "ĳ"
      ],
      [
        "åħ",
        "ĥ"
      ],
      [
        "è§",
        "Ĵ"
      ],
      [
        "ç¥",
        "ŀ"
      ],
      [
        "é¥",
        "®"
      ],
      [
        "2",
        "0"
      ],
      [
        "å·²",
        "ç»ı"
      ],
      [
        "å",
        "ĥ"
      ],
      [
        "æľ",
        "Ľ"
      ],
      [
        "è®¸",
        "å¤ļ"
      ],
      [
        "æİ",
        "¢"
      ],
      [
        "äºĨ",
        "ä¸Ģ"
      ],
      [
        "èĩªå·±",
        "çļĦ"
      ],
      [
        "ä¸¤",
        "ä¸ª"
      ],
      [
        "ç³",
        "ĸ"
      ],
      [
        "éĩ",
        "ĩ"
      ],
      [
        "åı",
        "į"
      ],
      [
        "ç",
        "¿"
      ],
      [
        "è°",
        "¢"
      ],
      [
        "èĢ",
        "ģ"
      ],
      [
        "äº§",
        "åĵģ"
      ],
      [
        "çº",
        "¿"
      ],
      [
        "åĪ",
        "Ĵ"
      ],
      [
        "è¾",
        "ĵ"
      ],
      [
        "çľ",
        "Ł"
      ],
      [
        "åĮ»",
        "çĸĹ"
      ],
      [
        "æŃ¤",
        "å¤ĸ"
      ],
      [
        "çĭ",
        "Ĺ"
      ],
      [
        "ç³»",
        "ç»Ł"
      ],
      [
        "æĽ´",
        "å¤ļ"
      ],
      [
        "è§",
        "Ħ"
      ],
      [
        "å°",
        "½"
      ],
      [
        "éĢ",
        "Ł"
      ],
      [
        "å",
        "Ķ"
      ],
      [
        "ç",
        "ħ"
      ],
      [
        "è¶",
        "£"
      ],
      [
        "è·",
        "¯"
      ],
      [
        "éĻ",
        "©"
      ],
      [
        "å¥",
        "³"
      ],
      [
        "åı",
        "Ĥ"
      ],
      [
        "çļĦ",
        "äºº"
      ],
      [
        "èģ",
        "Ķ"
      ],
      [
        "åĲ",
        "ĥ"
      ],
      [
        "ä¿Ŀ",
        "æĮģ"
      ],
      [
        "ä»",
        "½"
      ],
      [
        "æĸ",
        "¯"
      ],
      [
        "è",
        "¥"
      ],
      [
        "åħ¨",
        "çĲĥ"
      ],
      [
        "æĺ¯ä¸Ģ",
        "ç§į"
      ],
      [
        "æĬ",
        "¥"
      ],
      [
        "æĺ",
        "ĵ"
      ],
      [
        "çĽ",
        "´"
      ],
      [
        "åĬ¨",
        "çī©"
      ],
      [
        "Â",
        "·"
      ],
      [
        "æľį",
        "åĬ¡"
      ],
      [
        "çĻ",
        "½"
      ],
      [
        "å¤",
        "´"
      ],
      [
        "åĢ",
        "¼"
      ],
      [
        "è¥",
        "¿"
      ],
      [
        "æĸ",
        "½"
      ],
      [
        "è§£",
        "åĨ³"
      ],
      [
        "æİ",
        "Ĵ"
      ],
      [
        "æĪĲ",
        "ä¸º"
      ],
      [
        "ħ",
        "äºĭ"
      ],
      [
        "åĨ",
        "į"
      ],
      [
        "åĥ",
        "ı"
      ],
      [
        "çĥ",
        "Ń"
      ],
      [
        "çİ¯",
        "ä¿Ŀ"
      ],
      [
        "ä»",
        "ĭ"
      ],
      [
        "åĽ",
        "¾"
      ],
      [
        "æ´»",
        "åĬ¨"
      ],
      [
        "å",
        "²"
      ],
      [
        "éļ",
        "¾"
      ],
      [
        "ä¹",
        "°"
      ],
      [
        "ä¾",
        "¿"
      ],
      [
        "åĳ",
        "¨"
      ],
      [
        "çļĦ",
        "ä¸Ģ"
      ],
      [
        "æŁ",
        "¥"
      ],
      [
        "æĪĸ",
        "èĢħ"
      ],
      [
        "èİ",
        "·"
      ],
      [
        "è¾",
        "ĥ"
      ],
      [
        "èĻ",
        "ĳ"
      ],
      [
        "æŀ",
        "Ħ"
      ],
      [
        "æĿ",
        "¡"
      ],
      [
        "ç¤¾",
        "ä¼ļ"
      ],
      [
        "å®ī",
        "åħ¨"
      ],
      [
        "1",
        "0"
      ],
      [
        "è¿Ĳ",
        "åĬ¨"
      ],
      [
        "è§",
        "ģ"
      ],
      [
        "çī",
        "ĩ"
      ],
      [
        "åĲ",
        "¬"
      ],
      [
        "èº«",
        "ä½ĵ"
      ],
      [
        "ç»Ļ",
        "æĪĳ"
      ],
      [
        "è¯",
        "Ĺ"
      ],
      [
        "åıĳ",
        "çİ°"
      ],
      [
        "èĩ",
        "³"
      ],
      [
        "æ",
        "Ĳ"
      ],
      [
        "çļĦæĥ",
        "ħ"
      ],
      [
        "æ¼",
        "Ķ"
      ],
      [
        "éħ",
        "į"
      ],
      [
        "éļ",
        "ı"
      ],
      [
        "åıĺ",
        "åĮĸ"
      ],
      [
        "çİ°",
        "åľ¨"
      ],
      [
        "ãĢĤ",
        "âĢĿ"
      ],
      [
        "æī",
        "ĵ"
      ],
      [
        "ç§ĳ",
        "æĬĢ"
      ],
      [
        "åħ¶",
        "ä¸Ń"
      ],
      [
        "ç»",
        "ĥ"
      ],
      [
        "åº",
        "ı"
      ],
      [
        "æĶ",
        "¶"
      ],
      [
        "çĬ",
        "¶"
      ],
      [
        "è®¤",
        "ä¸º"
      ],
      [
        "å¼",
        "ł"
      ],
      [
        "èĤ",
        "²"
      ],
      [
        "å¤©",
        "æ°Ķ"
      ],
      [
        "ä¸",
        "½"
      ],
      [
        "ç´",
        "¢"
      ],
      [
        "éĤ£",
        "ä¹Ī"
      ],
      [
        "æĪĳä»¬",
        "çļĦ"
      ],
      [
        "åĳ",
        "½"
      ],
      [
        "ä¹ĭ",
        "éĹ´"
      ],
      [
        "äº",
        "«"
      ],
      [
        "æĬ",
        "Ĭ"
      ],
      [
        "ç²",
        "¾"
      ],
      [
        "è®",
        "°"
      ],
      [
        "æ¶",
        "Ī"
      ],
      [
        "¹",
        "æŀľ"
      ],
      [
        "æ",
        "ħ"
      ],
      [
        "åħ",
        "ħ"
      ],
      [
        "èĥ½",
        "åĬĽ"
      ],
      [
        "çĽ¸",
        "åħ³"
      ],
      [
        "èĭ",
        "¹æŀľ"
      ],
      [
        "äº",
        "Į"
      ],
      [
        "ä½ł",
        "çļĦ"
      ],
      [
        "åİĨ",
        "åı²"
      ],
      [
        "æĶ",
        "¿"
      ],
      [
        "åĲ",
        "¸"
      ],
      [
        "å¾Ī",
        "å¤ļ"
      ],
      [
        "åı",
        "¤"
      ],
      [
        "çŃ",
        "ĸ"
      ],
      [
        "å",
        "¡"
      ],
      [
        "å¸¦",
        "æĿ¥"
      ],
      [
        "ç",
        "ı"
      ],
      [
        "æ",
        "¤"
      ],
      [
        "æĳ",
        "ĺè¦ģ"
      ],
      [
        "åĽ",
        "Ń"
      ],
      [
        "åħ·",
        "æľī"
      ],
      [
        "è´",
        "Ń"
      ],
      [
        "ç",
        "¢"
      ],
      [
        "åħ",
        "´"
      ],
      [
        "éĺ",
        "Ł"
      ],
      [
        "å¸",
        "Ī"
      ],
      [
        "ä½",
        "İ"
      ],
      [
        "çĮ",
        "«"
      ],
      [
        "å¤",
        "±"
      ],
      [
        "éĹ",
        "¨"
      ],
      [
        "æ¬",
        "¾"
      ],
      [
        "ç»",
        "´"
      ],
      [
        "æ²",
        "»"
      ],
      [
        "åį",
        "³"
      ],
      [
        "ç»Ļå®ļ",
        "çļĦ"
      ],
      [
        "éĹ",
        "»"
      ],
      [
        "ç§ĳ",
        "åŃ¦"
      ],
      [
        "ç§",
        "°"
      ],
      [
        "å¸",
        "ĥ"
      ],
      [
        "æ",
        "¢"
      ],
      [
        "çĭ",
        "¬"
      ],
      [
        "åħ",
        "į"
      ],
      [
        "æŃ",
        "Į"
      ],
      [
        "è¯",
        "ī"
      ],
      [
        "éĩ",
        "Ĭ"
      ],
      [
        "äº",
        "Ĵ"
      ],
      [
        "èį",
        "Ĳ"
      ],
      [
        "å",
        "ĭ"
      ],
      [
        "éŁ³",
        "ä¹Ĳ"
      ],
      [
        "ç»Ļ",
        "åĩº"
      ],
      [
        "å°",
        "Ŀ"
      ],
      [
        "çļĦæ",
        "Ħ"
      ],
      [
        "¦",
        "Ĥ"
      ],
      [
        "çŃĶ",
        "æ¡Ī"
      ],
      [
        "æī",
        "į"
      ],
      [
        "æĿ",
        "Ĳ"
      ],
      [
        "è¿Ļ",
        "ç§į"
      ],
      [
        "è®¾",
        "è®¡"
      ],
      [
        "ç§¯",
        "æŀģ"
      ],
      [
        "ç»",
        "į"
      ],
      [
        "å¼Ģ",
        "å§ĭ"
      ],
      [
        "ä»»",
        "åĬ¡"
      ],
      [
        "èĲ",
        "¥"
      ],
      [
        "æĿ",
        "¾"
      ],
      [
        "äºĨ",
        "è§£"
      ],
      [
        "éĽ",
        "Ĩ"
      ],
      [
        "è¡¨",
        "è¾¾"
      ],
      [
        "ä»ĭ",
        "ç»į"
      ],
      [
        "ä¸Ń",
        "æıĲåıĸ"
      ],
      [
        "åı¥",
        "è¯Ŀ"
      ],
      [
        "çļĦ",
        "å½±åĵį"
      ],
      [
        "å¯¼",
        "èĩ´"
      ],
      [
        "å¯",
        "Į"
      ],
      [
        "è¯",
        "¯"
      ],
      [
        "åŃ",
        "£"
      ],
      [
        "å¿",
        "ħ"
      ],
      [
        "å",
        "¨"
      ],
      [
        "è",
        "Ľ"
      ],
      [
        "å¯¹",
        "äºİ"
      ],
      [
        "æ¨¡",
        "åŀĭ"
      ],
      [
        "åħ·",
        "ä½ĵ"
      ],
      [
        "è®¡ç®Ĺ",
        "æľº"
      ],
      [
        "èĭ",
        "±"
      ],
      [
        "çĶ",
        "·"
      ],
      [
        "æĥħ",
        "æĦŁ"
      ],
      [
        "æľºåĻ¨",
        "åŃ¦ä¹ł"
      ],
      [
        "çĲĨ",
        "è§£"
      ],
      [
        "æİ¨",
        "èįĲ"
      ],
      [
        "çļĦæ",
        "Ĭ"
      ],
      [
        "è½",
        "¬"
      ],
      [
        "å®ŀ",
        "çİ°"
      ],
      [
        "æľĢ",
        "è¿ĳ"
      ],
      [
        "æĸ°",
        "çļĦ"
      ],
      [
        "æĺ¯",
        "åĲ¦"
      ],
      [
        "éĢļ",
        "å¸¸"
      ],
      [
        "åı",
        "·"
      ],
      [
        "åį",
        "ĩ"
      ],
      [
        "åİ",
        "ĭ"
      ],
      [
        "è®",
        "¨"
      ],
      [
        "é¦",
        "Ļ"
      ],
      [
        "éĻ",
        "¤"
      ],
      [
        "èµ",
        "Ľ"
      ],
      [
        "è®",
        "²"
      ],
      [
        "åĬ",
        "¿"
      ],
      [
        "ä¸",
        "ĵ"
      ],
      [
        "ä»Ĭ",
        "å¤©"
      ],
      [
        "æĽ´",
        "å¥½"
      ],
      [
        "èĤ",
        "ī"
      ],
      [
        "é",
        "²"
      ],
      [
        "åĮ",
        "Ĺ"
      ],
      [
        "ä¸į",
        "æĸŃ"
      ],
      [
        "åĲĦ",
        "ç§į"
      ],
      [
        "ä¿",
        "®"
      ],
      [
        "æĿ",
        "İ"
      ],
      [
        "è´",
        "¹"
      ],
      [
        "é»",
        "ĳ"
      ],
      [
        "éĶ",
        "Ģ"
      ],
      [
        "æ°",
        "ĳ"
      ],
      [
        "åľ°",
        "çĲĥ"
      ],
      [
        "è®¡",
        "åĪĴ"
      ],
      [
        "å¸Ĥ",
        "åľº"
      ],
      [
        "è£",
        "ħ"
      ],
      [
        "åį",
        "İ"
      ],
      [
        "æĪ",
        "ı"
      ],
      [
        "åį",
        "ģ"
      ],
      [
        "åħ³éĶ®",
        "è¯į"
      ],
      [
        "åĳĬ",
        "è¯ī"
      ],
      [
        "è¯",
        "ģ"
      ],
      [
        "æŁ",
        "ĵ"
      ],
      [
        "åħ",
        "»"
      ],
      [
        "çļĦ",
        "éĹ®é¢ĺ"
      ],
      [
        "æīĢ",
        "æľī"
      ],
      [
        "ä¸Ģ",
        "æ®µ"
      ],
      [
        "é©",
        "¬"
      ],
      [
        "è",
        "ħ"
      ],
      [
        "åĸ",
        "Ħ"
      ],
      [
        "åĽ",
        "´"
      ],
      [
        "æīĢ",
        "ä»¥"
      ],
      [
        "çĶ¨",
        "æĪ·"
      ],
      [
        "æ³¨",
        "æĦı"
      ],
      [
        "èī",
        "º"
      ],
      [
        "æĻ",
        "ļ"
      ],
      [
        "ç»",
        "Ī"
      ],
      [
        "æĪĳ",
        "çļĦ"
      ],
      [
        "åįķ",
        "è¯į"
      ],
      [
        "å¯",
        "»"
      ],
      [
        "è¯Ĩ",
        "åĪ«"
      ],
      [
        "éĢĤ",
        "åĲĪ"
      ],
      [
        "å¤",
        "ı"
      ],
      [
        "ä¸Ģ",
        "èµ·"
      ],
      [
        "æİ",
        "§"
      ],
      [
        "ç¦",
        "»"
      ],
      [
        "å¸",
        "Į"
      ],
      [
        "æŃ£",
        "åľ¨"
      ],
      [
        "ç",
        "ª"
      ],
      [
        "A",
        "I"
      ],
      [
        "æĪĳä»¬",
        "åı¯ä»¥"
      ],
      [
        "èĳ",
        "Ĺ"
      ],
      [
        "å¾",
        "ĭ"
      ],
      [
        "éĻ",
        "ħ"
      ],
      [
        "éĺ",
        "²"
      ],
      [
        "æĸ°",
        "éĹ»"
      ],
      [
        "æ¯Ķ",
        "å¦Ĥ"
      ],
      [
        "è¶",
        "ħ"
      ],
      [
        "ä»ĸ",
        "çļĦ"
      ],
      [
        "åĽ",
        "Ľ"
      ],
      [
        "è¿",
        "ľ"
      ],
      [
        "å¤ª",
        "éĺ³"
      ],
      [
        "åŃ",
        "©"
      ],
      [
        "è¦ģ",
        "æ±Ĥ"
      ],
      [
        "çŁ¥",
        "éģĵ"
      ],
      [
        "çļĦ",
        "æĺ¯"
      ],
      [
        "æĹł",
        "æ³ķ"
      ],
      [
        "å°",
        "Ķ"
      ],
      [
        "å¹¶",
        "ä¸Ķ"
      ],
      [
        "ä¸Ģ",
        "ç§į"
      ],
      [
        "å·",
        "§"
      ],
      [
        "æĦŁ",
        "åĪ°"
      ],
      [
        "æŀ",
        "Ĺ"
      ],
      [
        "æ³",
        "Ľ"
      ],
      [
        "å£",
        "°"
      ],
      [
        "æ",
        "Ĵ"
      ],
      [
        "èµ",
        "°"
      ],
      [
        "åĳ",
        "¢"
      ],
      [
        "åħ³",
        "ç³»"
      ],
      [
        "æŁ",
        "Ĳ"
      ],
      [
        "å°ı",
        "è¯´"
      ],
      [
        "çĦ¶",
        "åĲİ"
      ],
      [
        "åı",
        "¦"
      ],
      [
        "ä»",
        "ħ"
      ],
      [
        "ï¼ļ",
        "âĢľ"
      ],
      [
        "è´",
        "Ł"
      ],
      [
        "æĹħ",
        "æ¸¸"
      ],
      [
        "è¿ĩ",
        "ç¨ĭ"
      ],
      [
        "åį",
        "Ĺ"
      ],
      [
        "æ¯ı",
        "ä¸ª"
      ],
      [
        "å£",
        "«"
      ],
      [
        "ç½",
        "®"
      ],
      [
        "åŃĺ",
        "åľ¨"
      ],
      [
        "æĢ»",
        "ç»ĵ"
      ],
      [
        "å¤§",
        "çļĦ"
      ],
      [
        "åİ",
        "ħ"
      ],
      [
        "èģ",
        "Į"
      ],
      [
        "è§£",
        "éĩĬ"
      ],
      [
        "èĢĥ",
        "èĻĳ"
      ],
      [
        "å¾",
        "·"
      ],
      [
        "æĪĲ",
        "åĬŁ"
      ],
      [
        "æĭ",
        "ī"
      ],
      [
        "è´¨",
        "éĩı"
      ],
      [
        "è¾",
        "¹"
      ],
      [
        "æĹ",
        "©"
      ],
      [
        "çļĦæ",
        "°"
      ],
      [
        "ç®¡",
        "çĲĨ"
      ],
      [
        "éĻ",
        "į"
      ],
      [
        "èĽ",
        "ĭ"
      ],
      [
        "çļĦæ",
        "Ģ"
      ],
      [
        "åŃ¦",
        "çĶŁ"
      ],
      [
        "æĺ",
        "¾"
      ],
      [
        "ĳ",
        "æĪĺ"
      ],
      [
        "å",
        "Ħ"
      ],
      [
        "æĪ",
        "¿"
      ],
      [
        "çŃī",
        "çŃī"
      ],
      [
        "è",
        "ŀ"
      ],
      [
        "ª",
        "æĸ½"
      ],
      [
        "æ®µ",
        "èĲ½"
      ],
      [
        "è¡Į",
        "ä¸º"
      ],
      [
        "ç¾İ",
        "åĽ½"
      ],
      [
        "ä¸",
        "ľ"
      ],
      [
        "æĪĳ",
        "æĥ³"
      ],
      [
        "éĶĻ",
        "è¯¯"
      ],
      [
        "åĮ»",
        "çĶŁ"
      ],
      [
        "å¢ŀ",
        "åĬł"
      ],
      [
        "ä¸Ģ",
        "ç¯ĩ"
      ],
      [
        "è¾",
        "ĳ"
      ],
      [
        "ç",
        "Ĩ"
      ],
      [
        "ä¼",
        "¼"
      ],
      [
        "å°Ŀ",
        "è¯ķ"
      ],
      [
        "äº",
        "Ķ"
      ],
      [
        "çħ",
        "§"
      ],
      [
        "å¯¹",
        "è¯Ŀ"
      ],
      [
        "å®Į",
        "æĪĲ"
      ],
      [
        "æ",
        "¦Ĥ"
      ],
      [
        "å¯",
        "Ĩ"
      ],
      [
        "çİ",
        "©"
      ],
      [
        "æĺ¯",
        "ä»Ģä¹Ī"
      ],
      [
        "å¹¿",
        "æ³Ľ"
      ],
      [
        "ç±",
        "³"
      ],
      [
        "ä¸ĭ",
        "éĿ¢"
      ],
      [
        "ä½ľ",
        "ä¸º"
      ],
      [
        "åĪ©",
        "çĶ¨"
      ],
      [
        "çĶ",
        "»"
      ],
      [
        "è¿Ļ",
        "æ®µ"
      ],
      [
        "ä¸įåĲĮ",
        "çļĦ"
      ],
      [
        "çģ",
        "«"
      ],
      [
        "èĩª",
        "åĬ¨"
      ],
      [
        "æľĢ",
        "åĲİ"
      ],
      [
        "é¥®",
        "é£Ł"
      ],
      [
        "æĭ",
        "¥"
      ],
      [
        "æļ",
        "ĸ"
      ],
      [
        "çİ",
        "ĭ"
      ],
      [
        "éģ",
        "¿"
      ],
      [
        "åĴ",
        "ĸ"
      ],
      [
        "å½ĵ",
        "çĦ¶"
      ],
      [
        "æ",
        "¿"
      ],
      [
        "é£Ł",
        "çī©"
      ],
      [
        "è®",
        "Ń"
      ],
      [
        "çļĦ",
        "åıĳå±ķ"
      ],
      [
        "å®",
        "³"
      ],
      [
        "å¾Ĺ",
        "åĪ°"
      ],
      [
        "æµ",
        "İ"
      ],
      [
        "åı",
        "°"
      ],
      [
        "æĽ´å¥½",
        "åľ°"
      ],
      [
        "åĽ",
        "¢"
      ],
      [
        "ç¡®",
        "ä¿Ŀ"
      ],
      [
        "å¿",
        "µ"
      ],
      [
        "åı¯èĥ½",
        "ä¼ļ"
      ],
      [
        "çļĦ",
        "åľ°"
      ],
      [
        "çļĦæķ",
        "°"
      ],
      [
        "ä¼",
        "ģ"
      ],
      [
        "çļĦ",
        "ä¿¡æģ¯"
      ],
      [
        "ãĢĤ",
        "\\"
      ],
      [
        "ä»»",
        "ä½ķ"
      ],
      [
        "æ°Ķ",
        "åĢĻ"
      ],
      [
        "äº",
        "ļ"
      ],
      [
        "ç®Ĺ",
        "æ³ķ"
      ],
      [
        "åķ",
        "¡"
      ],
      [
        "èŀ",
        "į"
      ],
      [
        "çļĦ",
        "åºĶçĶ¨"
      ],
      [
        "äº",
        "¬"
      ],
      [
        "ä¸į",
        "æĺ¯"
      ],
      [
        "æłĩ",
        "é¢ĺ"
      ],
      [
        "äº§",
        "çĶŁ"
      ],
      [
        "éĻ",
        "Ĳ"
      ],
      [
        "æĤ¨",
        "çļĦ"
      ],
      [
        "åĴĸ",
        "åķ¡"
      ],
      [
        "æĥħ",
        "åĨµ"
      ],
      [
        "æ´",
        "ģ"
      ],
      [
        "æ",
        "ĵ"
      ],
      [
        "å®",
        "¤"
      ],
      [
        "å¸Į",
        "æľĽ"
      ],
      [
        "æķ",
        "ħäºĭ"
      ],
      [
        "èį",
        "ī"
      ],
      [
        "èİ·",
        "å¾Ĺ"
      ],
      [
        "æį",
        "¢"
      ],
      [
        "è¿ĺ",
        "æľī"
      ],
      [
        "å",
        "ł"
      ],
      [
        "éĽ",
        "¨"
      ],
      [
        "äºº",
        "çļĦ"
      ],
      [
        "ç»",
        "ľ"
      ],
      [
        "äº¤",
        "éĢļ"
      ],
      [
        "æĢ",
        "İ"
      ],
      [
        "å·",
        "´"
      ],
      [
        "è¾ĵ",
        "åħ¥"
      ],
      [
        "çĽ®",
        "æłĩ"
      ],
      [
        "åĦ",
        "¿"
      ],
      [
        "ç»ı",
        "æµİ"
      ],
      [
        "è¿Ļ",
        "æł·"
      ],
      [
        "çĶŁæĪĲ",
        "ä¸Ģä¸ª"
      ],
      [
        "å¹",
        "²"
      ],
      [
        "é»",
        "Ħ"
      ],
      [
        "è¡¨",
        "ç¤º"
      ],
      [
        "é¦ĸ",
        "åħĪ"
      ],
      [
        "çĶ¨",
        "äºİ"
      ],
      [
        "åı¯ä»¥",
        "å¸®åĬ©"
      ],
      [
        "éħ",
        "Ĵ"
      ],
      [
        "è¡",
        "£"
      ],
      [
        "é£",
        "ŀ"
      ],
      [
        "éĥ½",
        "æĺ¯"
      ],
      [
        "ç³ĸ",
        "æŀľ"
      ],
      [
        "ä¼",
        "Ĺ"
      ],
      [
        "å¾",
        "ģ"
      ],
      [
        "æľī",
        "æķĪ"
      ],
      [
        "é¤Ĳ",
        "åİħ"
      ],
      [
        "çļĦ",
        "ä¸»è¦ģ"
      ],
      [
        "ä½ł",
        "åı¯ä»¥"
      ],
      [
        "éĺ",
        "ħ"
      ],
      [
        "åĮħ",
        "åĲ«"
      ],
      [
        "çī",
        "Ľ"
      ],
      [
        "çļĦæ",
        "ł"
      ],
      [
        "ç©",
        "¿"
      ],
      [
        "åº",
        "Ĺ"
      ],
      [
        "æĹħ",
        "è¡Į"
      ],
      [
        "æī¾",
        "åĪ°"
      ],
      [
        "å¾",
        "Ģ"
      ],
      [
        "æķĻ",
        "èĤ²"
      ],
      [
        "å±",
        "ŀ"
      ],
      [
        "åº",
        "Ń"
      ],
      [
        "ç»ĵ",
        "æŀľ"
      ],
      [
        "ç®Ģ",
        "åįķ"
      ],
      [
        "¡",
        "æŁĵ"
      ],
      [
        "éľĢ",
        "æ±Ĥ"
      ],
      [
        "æ¸¸",
        "æĪı"
      ],
      [
        "æ¿",
        "Ģ"
      ],
      [
        "çļĦ",
        "éĩįè¦ģ"
      ],
      [
        "éĥ¨",
        "åĪĨ"
      ],
      [
        "é",
        "º"
      ],
      [
        "åĳĬè¯ī",
        "æĪĳ"
      ],
      [
        "ä½¿",
        "åħ¶"
      ],
      [
        "åĿ",
        "ĩ"
      ],
      [
        "éģ¿",
        "åħį"
      ],
      [
        "éĩĩ",
        "åıĸ"
      ],
      [
        "æ",
        "©"
      ],
      [
        "å±",
        "ħ"
      ],
      [
        "æ",
        "½"
      ],
      [
        "è§Ĥ",
        "çĤ¹"
      ],
      [
        "åĩł",
        "ä¸ª"
      ],
      [
        "æİ",
        "ªæĸ½"
      ],
      [
        "ç½ĳ",
        "ç»ľ"
      ],
      [
        "åĪ¶",
        "ä½ľ"
      ],
      [
        "çī",
        "Į"
      ],
      [
        "åĩĨ",
        "ç¡®"
      ],
      [
        "ä¹Ł",
        "æĺ¯"
      ],
      [
        "æľī",
        "åħ³"
      ],
      [
        "å¾",
        "®"
      ],
      [
        "ä»",
        "¤"
      ],
      [
        "äº",
        "ī"
      ],
      [
        "æĮģ",
        "ç»Ń"
      ],
      [
        "æĶ¯",
        "æĮģ"
      ],
      [
        "èĥ½",
        "æºĲ"
      ],
      [
        "ä¸",
        "ĩ"
      ],
      [
        "ä½ĵ",
        "éªĮ"
      ],
      [
        "å",
        "ª"
      ],
      [
        "é",
        "±"
      ],
      [
        "èµ·",
        "æĿ¥"
      ],
      [
        "äºĨ",
        "ä¸Ģä¸ª"
      ],
      [
        "é±",
        "¼"
      ],
      [
        "ä½ľ",
        "çĶ¨"
      ],
      [
        "åī",
        "§"
      ],
      [
        "ä¼ģ",
        "ä¸ļ"
      ],
      [
        "è¡¨",
        "çİ°"
      ],
      [
        "éĩįè¦ģ",
        "çļĦ"
      ],
      [
        "ç«",
        "Ļ"
      ],
      [
        "ç»",
        "¿"
      ],
      [
        "ä¸į",
        "èĥ½"
      ],
      [
        "çĽ",
        "Ĭ"
      ],
      [
        "é",
        "¼"
      ],
      [
        "ç",
        "ĳ"
      ],
      [
        "æł",
        "ĳ"
      ],
      [
        "åıĳ",
        "çĶŁ"
      ],
      [
        "ä»ĸä»¬",
        "çļĦ"
      ],
      [
        "ä¹Ł",
        "åı¯ä»¥"
      ],
      [
        "0",
        "0"
      ],
      [
        "è",
        "ĵ"
      ],
      [
        "èī",
        "¯"
      ],
      [
        "éĺħ",
        "è¯»"
      ],
      [
        "åĪ",
        "ĩ"
      ],
      [
        "å°ı",
        "çº¢"
      ],
      [
        "èĩªçĦ¶",
        "è¯Ńè¨Ģ"
      ],
      [
        "æ¤",
        "į"
      ],
      [
        "¾",
        "çĹħ"
      ],
      [
        "é",
        "¾"
      ],
      [
        "çĶ±",
        "äºİ"
      ],
      [
        "çİ°",
        "ä»£"
      ],
      [
        "ä¸ī",
        "ä¸ª"
      ],
      [
        "å¤",
        "ľ"
      ],
      [
        "åĵª",
        "äºĽ"
      ],
      [
        "åĪ",
        "¤"
      ],
      [
        "ç¤¾",
        "äº¤"
      ],
      [
        "å®",
        "Ŀ"
      ],
      [
        "å¾",
        "ħ"
      ],
      [
        "ç¬",
        "¦"
      ],
      [
        "æ²",
        "¹"
      ],
      [
        "æĭ¥",
        "æľī"
      ],
      [
        "åŁº",
        "äºİ"
      ],
      [
        "å¥",
        "¶"
      ],
      [
        "âĢĿ",
        "ï¼Į"
      ],
      [
        "æ",
        "¹"
      ],
      [
        "åĬł",
        "åħ¥"
      ],
      [
        "åħ³",
        "æ³¨"
      ],
      [
        "çº",
        "§"
      ],
      [
        "å¥",
        "ĩ"
      ],
      [
        "è¿ĺ",
        "æĺ¯"
      ],
      [
        "èī²",
        "çļĦ"
      ],
      [
        "ç»",
        "ĩ"
      ],
      [
        "è¯",
        "Ĭ"
      ],
      [
        "æ±",
        "¡æŁĵ"
      ],
      [
        "åı",
        "Ī"
      ],
      [
        "å¦Ĥæŀľ",
        "ä½ł"
      ],
      [
        "é¢",
        "ľ"
      ],
      [
        "éģ",
        "ĩ"
      ],
      [
        "åĬ",
        "ª"
      ],
      [
        "ä¸",
        "¾"
      ],
      [
        "åº",
        "ľ"
      ],
      [
        "åĿ",
[...]
